{
  "version": "1.0",
  "truncation": null,
  "padding": null,
  "added_tokens": [
    {
      "id": 0,
      "content": "[PAD]",
      "single_word": false,
      "lstrip": false,
      "rstrip": false,
      "normalized": false,
      "special": true
    },
    {
      "id": 1,
      "content": "[BOS]",
      "single_word": false,
      "lstrip": false,
      "rstrip": false,
      "normalized": false,
      "special": true
    },
    {
      "id": 2,
      "content": "[EOS]",
      "single_word": false,
      "lstrip": false,
      "rstrip": false,
      "normalized": false,
      "special": true
    },
    {
      "id": 3,
      "content": "[CLS]",
      "single_word": false,
      "lstrip": false,
      "rstrip": false,
      "normalized": false,
      "special": true
    },
    {
      "id": 4,
      "content": "[SEP]",
      "single_word": false,
      "lstrip": false,
      "rstrip": false,
      "normalized": false,
      "special": true
    },
    {
      "id": 5,
      "content": "[EOD]",
      "single_word": false,
      "lstrip": false,
      "rstrip": false,
      "normalized": false,
      "special": true
    },
    {
      "id": 6,
      "content": "[MASK]",
      "single_word": false,
      "lstrip": false,
      "rstrip": false,
      "normalized": false,
      "special": true
    },
    {
      "id": 7,
      "content": "[UNK]",
      "single_word": false,
      "lstrip": false,
      "rstrip": false,
      "normalized": false,
      "special": true
    }
  ],
  "normalizer": {
    "type": "Sequence",
    "normalizers": [
      {
        "type": "NFD"
      },
      {
        "type": "StripAccents"
      },
      {
        "type": "Lowercase"
      }
    ]
  },
  "pre_tokenizer": {
    "type": "ByteLevel",
    "add_prefix_space": true,
    "trim_offsets": true,
    "use_regex": true
  },
  "post_processor": {
    "type": "ByteLevel",
    "add_prefix_space": true,
    "trim_offsets": true,
    "use_regex": true
  },
  "decoder": {
    "type": "ByteLevel",
    "add_prefix_space": true,
    "trim_offsets": true,
    "use_regex": true
  },
  "model": {
    "type": "BPE",
    "dropout": null,
    "unk_token": "[UNK]",
    "continuing_subword_prefix": null,
    "end_of_word_suffix": null,
    "fuse_unk": false,
    "byte_fallback": false,
    "ignore_merges": false,
    "vocab": {
      "[PAD]": 0,
      "[BOS]": 1,
      "[EOS]": 2,
      "[CLS]": 3,
      "[SEP]": 4,
      "[EOD]": 5,
      "[MASK]": 6,
      "[UNK]": 7,
      "!": 8,
      "\"": 9,
      "#": 10,
      "$": 11,
      "%": 12,
      "&": 13,
      "'": 14,
      "(": 15,
      ")": 16,
      "*": 17,
      "+": 18,
      ",": 19,
      "-": 20,
      ".": 21,
      "/": 22,
      "0": 23,
      "1": 24,
      "2": 25,
      "3": 26,
      "4": 27,
      "5": 28,
      "6": 29,
      "7": 30,
      "8": 31,
      "9": 32,
      ":": 33,
      ";": 34,
      "<": 35,
      "=": 36,
      ">": 37,
      "?": 38,
      "@": 39,
      "[": 40,
      "\\": 41,
      "]": 42,
      "^": 43,
      "_": 44,
      "`": 45,
      "a": 46,
      "b": 47,
      "c": 48,
      "d": 49,
      "e": 50,
      "f": 51,
      "g": 52,
      "h": 53,
      "i": 54,
      "j": 55,
      "k": 56,
      "l": 57,
      "m": 58,
      "n": 59,
      "o": 60,
      "p": 61,
      "q": 62,
      "r": 63,
      "s": 64,
      "t": 65,
      "u": 66,
      "v": 67,
      "w": 68,
      "x": 69,
      "y": 70,
      "z": 71,
      "{": 72,
      "|": 73,
      "}": 74,
      "~": 75,
      "¡": 76,
      "¢": 77,
      "£": 78,
      "¤": 79,
      "¥": 80,
      "¦": 81,
      "§": 82,
      "¨": 83,
      "©": 84,
      "ª": 85,
      "«": 86,
      "¬": 87,
      "®": 88,
      "¯": 89,
      "°": 90,
      "±": 91,
      "²": 92,
      "³": 93,
      "´": 94,
      "µ": 95,
      "¶": 96,
      "·": 97,
      "¸": 98,
      "¹": 99,
      "º": 100,
      "»": 101,
      "¼": 102,
      "½": 103,
      "¾": 104,
      "¿": 105,
      "Â": 106,
      "Ã": 107,
      "Ä": 108,
      "Å": 109,
      "Æ": 110,
      "Ç": 111,
      "È": 112,
      "É": 113,
      "Ê": 114,
      "Ë": 115,
      "Í": 116,
      "Î": 117,
      "Ï": 118,
      "Ð": 119,
      "Ñ": 120,
      "Ò": 121,
      "Ó": 122,
      "Ô": 123,
      "Õ": 124,
      "Ö": 125,
      "×": 126,
      "Ø": 127,
      "Ù": 128,
      "Ú": 129,
      "Û": 130,
      "Ü": 131,
      "Ý": 132,
      "Þ": 133,
      "ß": 134,
      "à": 135,
      "á": 136,
      "â": 137,
      "ã": 138,
      "ä": 139,
      "å": 140,
      "æ": 141,
      "ç": 142,
      "è": 143,
      "é": 144,
      "ê": 145,
      "í": 146,
      "î": 147,
      "ï": 148,
      "ð": 149,
      "ó": 150,
      "ô": 151,
      "Ă": 152,
      "ĉ": 153,
      "Ċ": 154,
      "č": 155,
      "Đ": 156,
      "Ġ": 157,
      "Ģ": 158,
      "ģ": 159,
      "Ĥ": 160,
      "ĥ": 161,
      "Ħ": 162,
      "ħ": 163,
      "Ĩ": 164,
      "ĩ": 165,
      "Ī": 166,
      "ī": 167,
      "Ĭ": 168,
      "ĭ": 169,
      "Į": 170,
      "į": 171,
      "İ": 172,
      "ı": 173,
      "Ĳ": 174,
      "ĳ": 175,
      "Ĵ": 176,
      "ĵ": 177,
      "Ķ": 178,
      "ķ": 179,
      "ĸ": 180,
      "Ĺ": 181,
      "ĺ": 182,
      "Ļ": 183,
      "ļ": 184,
      "Ľ": 185,
      "ľ": 186,
      "Ŀ": 187,
      "ŀ": 188,
      "Ł": 189,
      "ł": 190,
      "Ń": 191,
      "Ġt": 192,
      "Ġa": 193,
      "in": 194,
      "he": 195,
      "er": 196,
      "čĊ": 197,
      "Ġthe": 198,
      "on": 199,
      "Ġs": 200,
      "re": 201,
      "Ġc": 202,
      "Ġo": 203,
      "Ġw": 204,
      "an": 205,
      "en": 206,
      "at": 207,
      "Ġb": 208,
      "Ġp": 209,
      "Ġf": 210,
      "or": 211,
      "is": 212,
      "ed": 213,
      "it": 214,
      "es": 215,
      "Ġin": 216,
      "al": 217,
      "Ġm": 218,
      "ar": 219,
      "Ġan": 220,
      "Ġof": 221,
      "Ġd": 222,
      "ing": 223,
      "ic": 224,
      "as": 225,
      "Ġand": 226,
      "ro": 227,
      "Ġl": 228,
      "Ġh": 229,
      "ion": 230,
      "ĠčĊ": 231,
      "Ġto": 232,
      "ou": 233,
      "il": 234,
      "Ġn": 235,
      "Ġre": 236,
      "le": 237,
      "Ġg": 238,
      "ent": 239,
      "Ġ1": 240,
      "Ġe": 241,
      "st": 242,
      "am": 243,
      "om": 244,
      "el": 245,
      "ol": 246,
      "un": 247,
      "Ġth": 248,
      "ct": 249,
      "ur": 250,
      "Ġ(": 251,
      "ad": 252,
      "et": 253,
      "Ġst": 254,
      "iv": 255,
      "ch": 256,
      "Ġon": 257,
      "Ġ2": 258,
      "Ġfor": 259,
      "id": 260,
      "ers": 261,
      "Ġhe": 262,
      "us": 263,
      "ation": 264,
      "ig": 265,
      "ir": 266,
      "ot": 267,
      "Ġis": 268,
      "Ġwas": 269,
      "ce": 270,
      "im": 271,
      "ly": 272,
      "ay": 273,
      "Ġas": 274,
      "ut": 275,
      "ra": 276,
      "Ġ19": 277,
      "Ġal": 278,
      "Ġv": 279,
      "Ġj": 280,
      "Ġbe": 281,
      "ist": 282,
      "ow": 283,
      "âĢ": 284,
      "ith": 285,
      "ter": 286,
      "em": 287,
      "Ġ20": 288,
      "th": 289,
      "Ġk": 290,
      "od": 291,
      "Ġwith": 292,
      "ul": 293,
      "Ġr": 294,
      "and": 295,
      "Ġit": 296,
      "Ġy": 297,
      "Ġch": 298,
      "Ġde": 299,
      "Ġcon": 300,
      "Ġby": 301,
      "Ġat": 302,
      "Ġse": 303,
      "ag": 304,
      "Ġwh": 305,
      "rom": 306,
      "um": 307,
      "os": 308,
      "Ġcom": 309,
      "op": 310,
      "ac": 311,
      "Ġpro": 312,
      "Ġun": 313,
      "ver": 314,
      "est": 315,
      "Ġthat": 316,
      "her": 317,
      "'s": 318,
      "if": 319,
      "ri": 320,
      "Ġfrom": 321,
      "oc": 322,
      "av": 323,
      "ill": 324,
      "ab": 325,
      "Ġne": 326,
      "oun": 327,
      "ity": 328,
      "up": 329,
      "Ġ|": 330,
      "res": 331,
      "Ġex": 332,
      "ain": 333,
      "Ġpl": 334,
      "ian": 335,
      "Ġor": 336,
      "ies": 337,
      "ate": 338,
      "all": 339,
      "art": 340,
      "âĢĵ": 341,
      "Ġ\"": 342,
      "ia": 343,
      "ber": 344,
      "qu": 345,
      "ak": 346,
      "ort": 347,
      "pe": 348,
      "ud": 349,
      "se": 350,
      "Ġle": 351,
      "ard": 352,
      "igh": 353,
      "ces": 354,
      "ore": 355,
      "Ġhis": 356,
      "our": 357,
      "Ġare": 358,
      "ip": 359,
      "ld": 360,
      "ub": 361,
      "Ġro": 362,
      "ant": 363,
      "Ġsh": 364,
      "Ġar": 365,
      "ment": 366,
      "ap": 367,
      "Ġen": 368,
      "ov": 369,
      "ich": 370,
      "ive": 371,
      "Ġ201": 372,
      "ated": 373,
      "ge": 374,
      "ary": 375,
      "ial": 376,
      "ie": 377,
      "ust": 378,
      "fer": 379,
      "ug": 380,
      "ish": 381,
      "ine": 382,
      "og": 383,
      "ast": 384,
      "Ġwor": 385,
      "00": 386,
      "ell": 387,
      "ks": 388,
      "mer": 389,
      "ong": 390,
      "Ġcl": 391,
      "Ġcomp": 392,
      "ure": 393,
      "ire": 394,
      "Ġ[": 395,
      "ction": 396,
      "ight": 397,
      "ere": 398,
      "Ġte": 399,
      "uc": 400,
      "ess": 401,
      "so": 402,
      "ame": 403,
      "der": 404,
      "Ġthis": 405,
      "ost": 406,
      "eod": 407,
      "Ġ200": 408,
      "Ġnot": 409,
      "ical": 410,
      "Ġus": 411,
      "Ġsp": 412,
      "Ġad": 413,
      "Ġaf": 414,
      "Ġwere": 415,
      "ign": 416,
      "are": 417,
      "Ġap": 418,
      "Ġnew": 419,
      "Ġalso": 420,
      "pt": 421,
      "Ġmar": 422,
      "cl": 423,
      "ther": 424,
      "ran": 425,
      "Ġwhich": 426,
      "Ġ||": 427,
      "Ġser": 428,
      "Ġwhe": 429,
      "end": 430,
      "Ġplay": 431,
      "tern": 432,
      "ave": 433,
      "Ġsc": 434,
      "ue": 435,
      "ry": 436,
      "Ġcan": 437,
      "age": 438,
      "),": 439,
      "ord": 440,
      "Ġi": 441,
      "Ġab": 442,
      "rit": 443,
      "Ġman": 444,
      "Ġac": 445,
      "ric": 446,
      "ear": 447,
      "ass": 448,
      "ide": 449,
      "Ġ18": 450,
      "19": 451,
      "ous": 452,
      "per": 453,
      "Ġall": 454,
      "iz": 455,
      "Ġwe": 456,
      "ions": 457,
      "Ġfir": 458,
      "ack": 459,
      "ount": 460,
      "Ġpe": 461,
      "Ġcont": 462,
      "Ġhas": 463,
      "ome": 464,
      "Ġcol": 465,
      "Ġgo": 466,
      "Ġpart": 467,
      "ice": 468,
      "pl": 469,
      "man": 470,
      "ok": 471,
      "Ġ3": 472,
      "ect": 473,
      "ĠâĢĵ": 474,
      "und": 475,
      "ult": 476,
      "Ġfirst": 477,
      "ations": 478,
      "Ġcomm": 479,
      "Ġres": 480,
      "Ġyou": 481,
      "Ġint": 482,
      "Ġtheir": 483,
      "Ġhad": 484,
      "feren": 485,
      "Ġra": 486,
      "port": 487,
      "Ġshe": 488,
      "Ġbut": 489,
      "Ġind": 490,
      "Ġher": 491,
      "ib": 492,
      "Ġthey": 493,
      "out": 494,
      "ational": 495,
      "Ġone": 496,
      "hed": 497,
      "ory": 498,
      "ond": 499,
      "Ġhave": 500,
      "ang": 501,
      "ke": 502,
      "ph": 503,
      "Ġrec": 504,
      "Ġper": 505,
      "Ġco": 506,
      "land": 507,
      "Ġwho": 508,
      "ach": 509,
      "ime": 510,
      "ican": 511,
      "Ġtw": 512,
      "Ġag": 513,
      "ater": 514,
      "orn": 515,
      "Ġ-": 516,
      "ition": 517,
      "Ġits": 518,
      "ould": 519,
      "Ġyear": 520,
      "ree": 521,
      "ren": 522,
      "ff": 523,
      "ople": 524,
      "own": 525,
      "Ġafter": 526,
      "Ġbo": 527,
      "Ġ199": 528,
      "Ġme": 529,
      "wn": 530,
      "te": 531,
      "Ġfe": 532,
      "Ġim": 533,
      "ens": 534,
      "ates": 535,
      "Ġfil": 536,
      "Ġdes": 537,
      "Ġreferen": 538,
      "amp": 539,
      "Ġsch": 540,
      "Ġdis": 541,
      "ru": 542,
      "ts": 543,
      "ite": 544,
      "ally": 545,
      "Ġamer": 546,
      "for": 547,
      "ace": 548,
      "Ġpeople": 549,
      "Ġreferences": 550,
      "one": 551,
      "Ġother": 552,
      "Ġjo": 553,
      "Ġpre": 554,
      "ited": 555,
      "Ġpol": 556,
      "ubl": 557,
      "Ġup": 558,
      "ugh": 559,
      "act": 560,
      "ath": 561,
      "Ġoff": 562,
      "ors": 563,
      "aw": 564,
      "Ġfin": 565,
      "Ġbec": 566,
      "ild": 567,
      "Ġqu": 568,
      "ence": 569,
      "Ġev": 570,
      "Ġpr": 571,
      "ents": 572,
      "clud": 573,
      "Ġout": 574,
      "ember": 575,
      "âĢĻ": 576,
      ").": 577,
      "ile": 578,
      "ivers": 579,
      "ress": 580,
      "ool": 581,
      "able": 582,
      "Ġfilm": 583,
      "Ġtwo": 584,
      "ound": 585,
      "ade": 586,
      "Ġed": 587,
      "Ġ4": 588,
      "ne": 589,
      "Ġass": 590,
      "Ġph": 591,
      "Ġbl": 592,
      "Ġwill": 593,
      "Ġgro": 594,
      "Ġreg": 595,
      "Ġtra": 596,
      "ase": 597,
      "iss": 598,
      "vel": 599,
      "Ġspe": 600,
      "Ġact": 601,
      "we": 602,
      "Ġpar": 603,
      "ings": 604,
      "Ġinclud": 605,
      "Ġmus": 606,
      "Ġserv": 607,
      "les": 608,
      "uring": 609,
      "ward": 610,
      "uch": 611,
      "20": 612,
      "Ġcount": 613,
      "Ġamerican": 614,
      "ely": 615,
      "Ġover": 616,
      "ball": 617,
      "Ġcent": 618,
      "Ġbeen": 619,
      "Ġsec": 620,
      "old": 621,
      "Ġmay": 622,
      "Ġfo": 623,
      "Ġthere": 624,
      "Ġfl": 625,
      "Ġso": 626,
      "urn": 627,
      "gh": 628,
      "ased": 629,
      "Ġ198": 630,
      "Ġam": 631,
      "Ġcar": 632,
      "hip": 633,
      "Ġwhen": 634,
      "als": 635,
      "ose": 636,
      "ake": 637,
      "io": 638,
      "Ġlin": 639,
      "Ġeng": 640,
      "Ġgen": 641,
      "ance": 642,
      "Ġele": 643,
      "ied": 644,
      "Ġsup": 645,
      "Ġwork": 646,
      "ve": 647,
      "Ġsy": 648,
      "Ġbu": 649,
      "Ġschool": 650,
      "ail": 651,
      "Ġdo": 652,
      "Ġtr": 653,
      "Ġ5": 654,
      "Ġmin": 655,
      "Ġmore": 656,
      "Ġkn": 657,
      "ics": 658,
      "Ġtime": 659,
      "cess": 660,
      "ted": 661,
      "Ġsou": 662,
      "ons": 663,
      "ĠâĢ": 664,
      "Ġbr": 665,
      "Ġunivers": 666,
      "Ġloc": 667,
      "Ġnor": 668,
      "du": 669,
      "Ġhist": 670,
      "ck": 671,
      "Ġgr": 672,
      "ft": 673,
      "way": 674,
      "Ġz": 675,
      "ah": 676,
      "ton": 677,
      "gan": 678,
      "Ġunder": 679,
      "Ġno": 680,
      "Ġinto": 681,
      "Ġdist": 682,
      "Ġbro": 683,
      "Ġpres": 684,
      "Ġbet": 685,
      "Ġatt": 686,
      "Ġpubl": 687,
      "Ġwar": 688,
      "Ġmed": 689,
      "Ġart": 690,
      "Ġ197": 691,
      "Ġear": 692,
      "Ġcons": 693,
      "Ġop": 694,
      "oll": 695,
      "Ġem": 696,
      "Ġworld": 697,
      "Ġduring": 698,
      "ep": 699,
      "ĠĠ": 700,
      "ision": 701,
      "Ġli": 702,
      "ished": 703,
      "olog": 704,
      "Ġgu": 705,
      "ale": 706,
      "ans": 707,
      "Ġstud": 708,
      "Ġhow": 709,
      "ury": 710,
      "ick": 711,
      "ral": 712,
      "Ġwin": 713,
      "form": 714,
      "Ġgre": 715,
      "rib": 716,
      "ough": 717,
      "Ġabout": 718,
      "Ġrep": 719,
      "Ġsome": 720,
      "Ġyour": 721,
      "Ġnational": 722,
      "Ġma": 723,
      "che": 724,
      "Ġmon": 725,
      "ious": 726,
      "Ġuniversity": 727,
      "Ġteam": 728,
      "Ġpo": 729,
      "ames": 730,
      "ason": 731,
      "red": 732,
      "Ġchar": 733,
      "Ġfoot": 734,
      "Ġ6": 735,
      "Ġinter": 736,
      "the": 737,
      "cent": 738,
      "ists": 739,
      "Ġunited": 740,
      "Ġwould": 741,
      "ily": 742,
      "rans": 743,
      "Ġprov": 744,
      "Ġmost": 745,
      "ict": 746,
      "Ġsub": 747,
      "Ġ196": 748,
      "cted": 749,
      "oth": 750,
      "ife": 751,
      "Ġdr": 752,
      "Ġhim": 753,
      "ident": 754,
      "Ġacc": 755,
      "Ġspec": 756,
      "Ġapp": 757,
      "ities": 758,
      "Ġrel": 759,
      "Ġhigh": 760,
      "Ġthem": 761,
      "Ġthro": 762,
      "Ġest": 763,
      "ix": 764,
      "ating": 765,
      "Ġcolle": 766,
      "Ġtrans": 767,
      "aus": 768,
      "Ġonly": 769,
      "Ġyears": 770,
      "Âł": 771,
      "Ġstate": 772,
      "ood": 773,
      "az": 774,
      "ork": 775,
      "Ġinst": 776,
      "iel": 777,
      "ative": 778,
      "ternal": 779,
      "gr": 780,
      "Ġwhere": 781,
      "ery": 782,
      "ince": 783,
      "Ġret": 784,
      "ys": 785,
      "Ġfam": 786,
      "Ġform": 787,
      "Ġsa": 788,
      "Ġfootball": 789,
      "Ġsing": 790,
      "oci": 791,
      "Ġu": 792,
      "Ġpop": 793,
      "Ġrecord": 794,
      "Ġagain": 795,
      "ll": 796,
      "Ġstates": 797,
      "Ġcity": 798,
      "ier": 799,
      "ular": 800,
      "Ġrem": 801,
      "Ġthrough": 802,
      "air": 803,
      "Ġsouth": 804,
      "Ġalb": 805,
      "ouse": 806,
      "ual": 807,
      "ollow": 808,
      "Ġdef": 809,
      "vern": 810,
      "Ġcre": 811,
      "ced": 812,
      "ins": 813,
      "Ġthan": 814,
      "Ġplayers": 815,
      "ific": 816,
      "Ġinc": 817,
      "Ġsm": 818,
      "Ġbir": 819,
      "Ġexternal": 820,
      "Ġlinks": 821,
      "Ġinv": 822,
      "Ġent": 823,
      "int": 824,
      "Ġdire": 825,
      "Ġ7": 826,
      "Ġfound": 827,
      "emb": 828,
      "Ġfollow": 829,
      "round": 830,
      "Ġgener": 831,
      "ween": 832,
      "iving": 833,
      "Ġcompan": 834,
      "Ġair": 835,
      "att": 836,
      "Ġend": 837,
      "Ġdep": 838,
      "ina": 839,
      "ik": 840,
      "Ġsecond": 841,
      "Ġbetween": 842,
      "Ġmov": 843,
      "Ġ194": 844,
      "Ġthen": 845,
      "Ġnov": 846,
      "Ġthese": 847,
      "Ġgroup": 848,
      "Ġsee": 849,
      "Ġmet": 850,
      "hn": 851,
      "ert": 852,
      "co": 853,
      "Ġif": 854,
      "Ġthree": 855,
      "Ġgovern": 856,
      "fore": 857,
      "Ġadd": 858,
      "ning": 859,
      "18": 860,
      "Ġrele": 861,
      "ron": 862,
      "ket": 863,
      "Ġwell": 864,
      "raph": 865,
      "Ġwhile": 866,
      "abl": 867,
      "erson": 868,
      "Ġnum": 869,
      "Ġ195": 870,
      "Ġwrit": 871,
      "Ġday": 872,
      "ten": 873,
      "Ġnorth": 874,
      "ob": 875,
      "Ġbel": 876,
      "Ġsur": 877,
      "Ġset": 878,
      "Ġlater": 879,
      "ss": 880,
      "Ġcap": 881,
      "Ġmade": 882,
      "Ġter": 883,
      "Ġcare": 884,
      "Ġsuch": 885,
      "Ġmusic": 886,
      "ures": 887,
      "Ġla": 888,
      "Ġ8": 889,
      "ement": 890,
      "Ġ17": 891,
      "Ġlist": 892,
      "ject": 893,
      "Ġwom": 894,
      "Ġseason": 895,
      "Ġge": 896,
      "Ġfran": 897,
      "ional": 898,
      "bs": 899,
      "velop": 900,
      "Ġused": 901,
      "Ġexp": 902,
      "Ġaward": 903,
      "Ġmany": 904,
      "Ġmod": 905,
      "Ġcommun": 906,
      "ower": 907,
      "Ġalbum": 908,
      "Ġany": 909,
      "oy": 910,
      "Ġpos": 911,
      "iew": 912,
      "duc": 913,
      "Ġbar": 914,
      "ise": 915,
      "Ġintern": 916,
      "..": 917,
      "its": 918,
      "Ġlead": 919,
      "ley": 920,
      "ths": 921,
      "Ġlar": 922,
      "Ġmat": 923,
      "iam": 924,
      "Ġoffic": 925,
      "Ġback": 926,
      "ments": 927,
      "cy": 928,
      "Ġdevelop": 929,
      "Ġjohn": 930,
      "ield": 931,
      "Ġjun": 932,
      "Ġhistory": 933,
      "Ġsong": 934,
      "Ġcall": 935,
      "ute": 936,
      "ern": 937,
      "Ġaust": 938,
      "Ġcounty": 939,
      "Ġger": 940,
      "enn": 941,
      "Ġbeing": 942,
      "Ġseries": 943,
      "Ġrev": 944,
      "rict": 945,
      "Ġ9": 946,
      "ann": 947,
      "uss": 948,
      "ctor": 949,
      "Ġprof": 950,
      "Ġdec": 951,
      "ague": 952,
      "iver": 953,
      "Ġoper": 954,
      "Ġarm": 955,
      "Ġshow": 956,
      "Ġhouse": 957,
      "ind": 958,
      "Ġfour": 959,
      "Ġmain": 960,
      "Ġbefore": 961,
      "son": 962,
      "Ġprodu": 963,
      "Ġ10": 964,
      "ank": 965,
      "Ġel": 966,
      "Ġke": 967,
      "\".": 968,
      "ty": 969,
      "Ġlife": 970,
      "Ġsw": 971,
      "ather": 972,
      "ived": 973,
      "ism": 974,
      "stem": 975,
      "Ġimp": 976,
      "Ġaut": 977,
      "Ġjust": 978,
      "ograph": 979,
      "Ġbrit": 980,
      "sh": 981,
      "Ġbuild": 982,
      "Ġchamp": 983,
      "cc": 984,
      "Ġpolit": 985,
      "Ġknown": 986,
      "ines": 987,
      ".\"": 988,
      "ull": 989,
      "Ġcor": 990,
      "other": 991,
      "Ġsl": 992,
      "Ġbus": 993,
      "let": 994,
      "Ġann": 995,
      "Ġ&": 996,
      "Ġlo": 997,
      "Ġjan": 998,
      "Ġmy": 999,
      "ural": 1000,
      "Ġpublic": 1001,
      "Ġsign": 1002,
      "Ġdeath": 1003,
      "Ġever": 1004,
      "uro": 1005,
      "Ġboth": 1006,
      "Ġconst": 1007,
      "Ġown": 1008,
      "Ġlong": 1009,
      "min": 1010,
      "Ġsystem": 1011,
      "Ġdesign": 1012,
      "ved": 1013,
      "Ġsim": 1014,
      "ature": 1015,
      "Ġ193": 1016,
      "200": 1017,
      "Ġhel": 1018,
      "Ġfamily": 1019,
      "Ġestabl": 1020,
      "ger": 1021,
      "ctions": 1022,
      "Ġche": 1023,
      "Ġmil": 1024,
      "Ġappe": 1025,
      "Ġleague": 1026,
      "ock": 1027,
      "Ġrece": 1028,
      "urch": 1029,
      "fl": 1030,
      "Ġincluding": 1031,
      "ives": 1032,
      "Ġ16": 1033,
      "Ġcur": 1034,
      "ai": 1035,
      "Ġdif": 1036,
      "Ġcour": 1037,
      "Ġtown": 1038,
      "Ġdem": 1039,
      "arch": 1040,
      "Ġbecame": 1041,
      "Ġclass": 1042,
      "ause": 1043,
      "ever": 1044,
      "Ġ15": 1045,
      "xt": 1046,
      "Ġclub": 1047,
      "Ġhar": 1048,
      "Ġwhat": 1049,
      "ting": 1050,
      "Ġvar": 1051,
      "Ġlaw": 1052,
      "elf": 1053,
      "Ġlike": 1054,
      "Ġgl": 1055,
      "Ġagainst": 1056,
      "ution": 1057,
      "igin": 1058,
      "con": 1059,
      "\",": 1060,
      "Ġinternational": 1061,
      "Ġav": 1062,
      "Ġopen": 1063,
      "Ġorgan": 1064,
      "Ġwomen": 1065,
      "Ġgerman": 1066,
      "ash": 1067,
      "Ġcro": 1068,
      "ner": 1069,
      "Ġdistrict": 1070,
      "Ġstr": 1071,
      "Ġcal": 1072,
      "ired": 1073,
      "ful": 1074,
      "Ġju": 1075,
      "Ġstart": 1076,
      "Ġdiv": 1077,
      "Ġearly": 1078,
      "ister": 1079,
      "Ġcompany": 1080,
      "Ġperson": 1081,
      "Ġleg": 1082,
      "Ġuse": 1083,
      "ars": 1084,
      "ology": 1085,
      "Ġgame": 1086,
      "Ġunt": 1087,
      "ues": 1088,
      "Ġsince": 1089,
      "bo": 1090,
      "Ġext": 1091,
      "Ġchild": 1092,
      "ized": 1093,
      "Ġ|-": 1094,
      "000": 1095,
      "Ġnumber": 1096,
      "Ġhowever": 1097,
      "ility": 1098,
      "ians": 1099,
      "Ġrun": 1100,
      "Ġcr": 1101,
      "Ġorigin": 1102,
      "ient": 1103,
      "by": 1104,
      "Ġsever": 1105,
      "els": 1106,
      "gram": 1107,
      "Ġbest": 1108,
      "ica": 1109,
      "Ġwest": 1110,
      "Ġfilms": 1111,
      "ital": 1112,
      "Ġmiss": 1113,
      "ined": 1114,
      "ract": 1115,
      "Ġval": 1116,
      "Ġir": 1117,
      "Ġuntil": 1118,
      "ants": 1119,
      "Ġwon": 1120,
      "Ġland": 1121,
      "Ġyork": 1122,
      "aking": 1123,
      "Ġgovernment": 1124,
      "iet": 1125,
      "Ġarea": 1126,
      "Ġassoci": 1127,
      "cial": 1128,
      "Ġadv": 1129,
      "Ġins": 1130,
      "amed": 1131,
      "uary": 1132,
      "get": 1133,
      "Ġaustral": 1134,
      "ae": 1135,
      "Ġbas": 1136,
      "com": 1137,
      "Ġport": 1138,
      "ange": 1139,
      "Ġtele": 1140,
      "Ġgames": 1141,
      "Ġcareer": 1142,
      "born": 1143,
      "ually": 1144,
      "ible": 1145,
      "Ġaug": 1146,
      "Ġname": 1147,
      "ices": 1148,
      "Ġking": 1149,
      "Ġchampions": 1150,
      "Ġfollowing": 1151,
      "Ġsupport": 1152,
      "ove": 1153,
      "Ġprogram": 1154,
      "21": 1155,
      "ps": 1156,
      "Ġoct": 1157,
      "ages": 1158,
      "Ġmemb": 1159,
      "Ġour": 1160,
      "Ġste": 1161,
      "Ġhome": 1162,
      "Ġeff": 1163,
      "Ġpat": 1164,
      "imes": 1165,
      "Ġmaj": 1166,
      "ience": 1167,
      "ptember": 1168,
      "led": 1169,
      "Ġeduc": 1170,
      "Ġbritish": 1171,
      "Ġmarch": 1172,
      "Ġdesc": 1173,
      "be": 1174,
      "ober": 1175,
      "Ġhead": 1176,
      "ene": 1177,
      "to": 1178,
      "Ġlit": 1179,
      "Ġty": 1180,
      "ium": 1181,
      "Ġresult": 1182,
      "Ġsk": 1183,
      "ril": 1184,
      "Ġ12": 1185,
      "Ġformer": 1186,
      "Ġprofess": 1187,
      "Ġaugust": 1188,
      "Ġget": 1189,
      "Ġsoc": 1190,
      "iness": 1191,
      "Ġplace": 1192,
      "Ġmembers": 1193,
      "Ġvill": 1194,
      "Ġeuro": 1195,
      "Ġright": 1196,
      "Ġseptember": 1197,
      "Ġline": 1198,
      "Ġnow": 1199,
      "Ġsame": 1200,
      "ĠâĢĶ": 1201,
      "Ġchr": 1202,
      "Ġdel": 1203,
      "ata": 1204,
      "ior": 1205,
      "rop": 1206,
      "Ġliving": 1207,
      "'t": 1208,
      "Ġeach": 1209,
      "=\"": 1210,
      "Ġcollege": 1211,
      "chn": 1212,
      "Ġdown": 1213,
      "10": 1214,
      "ider": 1215,
      "eng": 1216,
      "Ġoctober": 1217,
      "Ġcontin": 1218,
      "ared": 1219,
      "lish": 1220,
      "por": 1221,
      "Ġdet": 1222,
      "pos": 1223,
      "Ġjanuary": 1224,
      "fe": 1225,
      "ained": 1226,
      "Ġstre": 1227,
      "erv": 1228,
      "cept": 1229,
      "ulation": 1230,
      "Ġdid": 1231,
      "Ġway": 1232,
      "Ġorder": 1233,
      "Ġob": 1234,
      "âĢĿ": 1235,
      "Ġseveral": 1236,
      "Ġmid": 1237,
      "Ġcanad": 1238,
      "au": 1239,
      "Ġbirths": 1240,
      "Ġplayed": 1241,
      "Ġjune": 1242,
      "Ġtre": 1243,
      "ark": 1244,
      "Ġsuc": 1245,
      "Ġmajor": 1246,
      "Ġmanag": 1247,
      "alth": 1248,
      "ĠâĢľ": 1249,
      "Ġgeneral": 1250,
      "Ġep": 1251,
      "Ġpass": 1252,
      "Ġold": 1253,
      "Ġreleased": 1254,
      "cem": 1255,
      "Ġarch": 1256,
      "ality": 1257,
      "Ġbecause": 1258,
      "icip": 1259,
      "Ġsu": 1260,
      "Ġcamp": 1261,
      "Ġrom": 1262,
      "Ġjuly": 1263,
      "day": 1264,
      "ott": 1265,
      "Ġbre": 1266,
      "ms": 1267,
      "col": 1268,
      "resent": 1269,
      "Ġmag": 1270,
      "Ġmill": 1271,
      "cember": 1272,
      "Ġreturn": 1273,
      "Ġhistor": 1274,
      "ats": 1275,
      "Ġcomple": 1276,
      "Ġapril": 1277,
      "yle": 1278,
      "Ġenglish": 1279,
      "Ġprom": 1280,
      "duced": 1281,
      "Ġsum": 1282,
      "Ġdon": 1283,
      "Ġtop": 1284,
      "Ġneed": 1285,
      "Ġdra": 1286,
      "ze": 1287,
      "ried": 1288,
      "Ġnovember": 1289,
      "hing": 1290,
      "ble": 1291,
      "Ġevery": 1292,
      "Ġbusiness": 1293,
      "Ġcompet": 1294,
      "17": 1295,
      "ator": 1296,
      "ax": 1297,
      "Ġcould": 1298,
      "Ġ.": 1299,
      "Ġpresident": 1300,
      "Ġcoun": 1301,
      "me": 1302,
      "Ġexper": 1303,
      "Ġes": 1304,
      "ales": 1305,
      "Ġje": 1306,
      "rent": 1307,
      "Ġpost": 1308,
      "Ġcalled": 1309,
      "Ġ14": 1310,
      "Ġtechn": 1311,
      "de": 1312,
      "Ġgreat": 1313,
      "Ġmake": 1314,
      "Ġparty": 1315,
      "Ġdecember": 1316,
      "br": 1317,
      "vision": 1318,
      "Ġsport": 1319,
      "Ġservice": 1320,
      "Ġchampionship": 1321,
      "Ġchurch": 1322,
      "ds": 1323,
      "gin": 1324,
      "Ġ13": 1325,
      "Ġtit": 1326,
      "ham": 1327,
      "ically": 1328,
      "hen": 1329,
      "Ġsol": 1330,
      "yl": 1331,
      "mp": 1332,
      "Ġnear": 1333,
      "bert": 1334,
      "ink": 1335,
      "Ġmember": 1336,
      "Ġ2010": 1337,
      "Ġmen": 1338,
      "ised": 1339,
      "Ġband": 1340,
      "Ġrad": 1341,
      "Ġx": 1342,
      "Ġfre": 1343,
      "uck": 1344,
      "Ġeurope": 1345,
      "ane": 1346,
      "ped": 1347,
      "ilt": 1348,
      "Ġhum": 1349,
      "ography": 1350,
      "Ġpri": 1351,
      "Ġprev": 1352,
      "Ġsen": 1353,
      "Ġsmall": 1354,
      "ains": 1355,
      "bru": 1356,
      "apan": 1357,
      "Ġfac": 1358,
      "Ġpark": 1359,
      "ided": 1360,
      "Ġeast": 1361,
      "yn": 1362,
      "Ġrail": 1363,
      "Ġbased": 1364,
      "Ġ'": 1365,
      "Ġeven": 1366,
      "Ġphil": 1367,
      "Ġvol": 1368,
      "Ġ11": 1369,
      "que": 1370,
      "Ġchrist": 1371,
      "ets": 1372,
      "Ġreport": 1373,
      "bruary": 1374,
      "ien": 1375,
      "tle": 1376,
      "Ġsaid": 1377,
      "Ġthir": 1378,
      "Ġstation": 1379,
      "Ġvis": 1380,
      "Ġalong": 1381,
      "Ġlast": 1382,
      "Ġaround": 1383,
      "Ġii": 1384,
      "century": 1385,
      "Ġwater": 1386,
      "Ġ192": 1387,
      "hor": 1388,
      "ony": 1389,
      "Ġofficial": 1390,
      "Ġlocal": 1391,
      "Ġtelevision": 1392,
      "Ġstand": 1393,
      "Ġpower": 1394,
      "Ġfar": 1395,
      "Ġer": 1396,
      "hes": 1397,
      "Ġfore": 1398,
      "ling": 1399,
      "ple": 1400,
      "ended": 1401,
      "Ġrequ": 1402,
      "Ġfebruary": 1403,
      "Ġocc": 1404,
      "gy": 1405,
      "Ġhand": 1406,
      "Ġisland": 1407,
      "Ġpa": 1408,
      "ek": 1409,
      "ged": 1410,
      "Ġbook": 1411,
      "na": 1412,
      "rench": 1413,
      "Ġgeor": 1414,
      "Ġplac": 1415,
      "Ġroad": 1416,
      "aving": 1417,
      "Ġpet": 1418,
      "Ġrest": 1419,
      "Ġrepresent": 1420,
      "Ġcharact": 1421,
      "ama": 1422,
      "itions": 1423,
      "angu": 1424,
      "Ġborn": 1425,
      "Ġjapan": 1426,
      "Ġcontro": 1427,
      "ung": 1428,
      "Ġrese": 1429,
      "ese": 1430,
      "ino": 1431,
      "ode": 1432,
      "ille": 1433,
      "ival": 1434,
      "Ġriver": 1435,
      "ca": 1436,
      "Ġang": 1437,
      "Ġfinal": 1438,
      "ster": 1439,
      "ford": 1440,
      "omet": 1441,
      "pect": 1442,
      "ret": 1443,
      "Ġdiffer": 1444,
      "Ġvers": 1445,
      "ana": 1446,
      "Ġlos": 1447,
      "ven": 1448,
      "199": 1449,
      "Ġ$": 1450,
      "15": 1451,
      "Ġdue": 1452,
      "Ġ2011": 1453,
      "ued": 1454,
      "16": 1455,
      "Ġevent": 1456,
      "ides": 1457,
      "ison": 1458,
      "Ġanother": 1459,
      "Ġshort": 1460,
      "Ġbra": 1461,
      "Ġtri": 1462,
      "gest": 1463,
      "Ġmo": 1464,
      "Ġblack": 1465,
      "ruct": 1466,
      "Ġthose": 1467,
      "Ġnamed": 1468,
      "aster": 1469,
      "12": 1470,
      "atic": 1471,
      "Ġbi": 1472,
      "line": 1473,
      "ches": 1474,
      "Ġfur": 1475,
      "Ġbegan": 1476,
      "Ġmount": 1477,
      "Ġread": 1478,
      "ows": 1479,
      "Ġdeb": 1480,
      "Ġfrench": 1481,
      "Ġnet": 1482,
      "ety": 1483,
      "Ġdisc": 1484,
      "Ġheld": 1485,
      "Ġinform": 1486,
      "Ġsuccess": 1487,
      "Ġaddition": 1488,
      "Ġmer": 1489,
      "Ġgood": 1490,
      "Ġ2012": 1491,
      "Ġlocated": 1492,
      "Ġ2008": 1493,
      "akes": 1494,
      "ĠĠĠĠ": 1495,
      "Ġvery": 1496,
      "Ġvide": 1497,
      "Ġproject": 1498,
      "Ġafric": 1499,
      "Ġruss": 1500,
      "Ġestablished": 1501,
      "Ġstat": 1502,
      "Ġdescrib": 1503,
      "Ġwithin": 1504,
      "Ġcult": 1505,
      "Ġbatt": 1506,
      "ards": 1507,
      "Ġage": 1508,
      "Ġchildren": 1509,
      "sp": 1510,
      "alk": 1511,
      "Ġmilit": 1512,
      "Ġdifferent": 1513,
      "ored": 1514,
      "ness": 1515,
      "Ġcle": 1516,
      "ately": 1517,
      "cil": 1518,
      "Ġref": 1519,
      "ified": 1520,
      "Ġsingle": 1521,
      "Ġdepart": 1522,
      "Ġlab": 1523,
      "Ġ2014": 1524,
      "right": 1525,
      "Ġ21": 1526,
      "Ġred": 1527,
      "Ġ2009": 1528,
      "ring": 1529,
      "Ġfield": 1530,
      "adem": 1531,
      "Ġwilliam": 1532,
      "Ġant": 1533,
      "Ġpopulation": 1534,
      "Ġsix": 1535,
      "app": 1536,
      "Ġappro": 1537,
      "uk": 1538,
      "Ġtook": 1539,
      "Ġson": 1540,
      "Ġ2013": 1541,
      "augh": 1542,
      "Ġsan": 1543,
      "Ġ190": 1544,
      "med": 1545,
      "Ġspecial": 1546,
      "Ġcentury": 1547,
      "Ġpresent": 1548,
      "Ġprot": 1549,
      "Ġstill": 1550,
      "ays": 1551,
      "Ġiss": 1552,
      "ondon": 1553,
      "Ġdivision": 1554,
      "Ġcurrent": 1555,
      "ission": 1556,
      "Ġyoun": 1557,
      "cer": 1558,
      "Ġ2016": 1559,
      "Ġ2015": 1560,
      "Ġinstit": 1561,
      "Ġital": 1562,
      "ize": 1563,
      "Ġ2007": 1564,
      "Ġengine": 1565,
      "Ġcountry": 1566,
      "Ġleft": 1567,
      "Ġ2006": 1568,
      "Ġbuilding": 1569,
      "Ġsocial": 1570,
      "bur": 1571,
      "li": 1572,
      "Ġthough": 1573,
      "Ġvict": 1574,
      "ention": 1575,
      "Ġcrit": 1576,
      "Ġnon": 1577,
      "Ġequ": 1578,
      "ining": 1579,
      "inc": 1580,
      "Ġcup": 1581,
      "Ġeducation": 1582,
      "Ġconf": 1583,
      "Ġeas": 1584,
      "Ġcast": 1585,
      "Ġbuilt": 1586,
      "Ġassociation": 1587,
      "14": 1588,
      "Ġplayer": 1589,
      "Ġroy": 1590,
      "Ġarmy": 1591,
      "Ġthird": 1592,
      "Ġresp": 1593,
      "Ġaccord": 1594,
      "Ġdav": 1595,
      "ara": 1596,
      "Ġfive": 1597,
      "ization": 1598,
      "Ġmuch": 1599,
      "Ġdevelopment": 1600,
      "Ġhealth": 1601,
      "Ġtake": 1602,
      "Ġoly": 1603,
      "Ġpublished": 1604,
      "Ġlondon": 1605,
      "ody": 1606,
      "Ġresearch": 1607,
      "Ġconsider": 1608,
      "riend": 1609,
      "ief": 1610,
      "Ġcourt": 1611,
      "Ġworks": 1612,
      "Ġolymp": 1613,
      "ma": 1614,
      "mon": 1615,
      "iven": 1616,
      "Ġpress": 1617,
      "Ġspecies": 1618,
      "eder": 1619,
      "Ġindian": 1620,
      "idge": 1621,
      "omin": 1622,
      "Ġpain": 1623,
      "13": 1624,
      "aim": 1625,
      "Ġtimes": 1626,
      "Ġhelp": 1627,
      "Ġactiv": 1628,
      "Ġship": 1629,
      "Ġserved": 1630,
      "Ġelect": 1631,
      "Ġknow": 1632,
      "Ġ2018": 1633,
      "Ġjour": 1634,
      "Ġsoci": 1635,
      "Ġreceived": 1636,
      "Ġimport": 1637,
      "ption": 1638,
      "Ġ2017": 1639,
      "Ġhon": 1640,
      "Ġhal": 1641,
      "Ġtem": 1642,
      "Ġcenter": 1643,
      "Ġhol": 1644,
      "Ġalign": 1645,
      "Ġcommunity": 1646,
      "Ġvi": 1647,
      "Ġvillage": 1648,
      "Ġ25": 1649,
      "Ġsqu": 1650,
      "Ġreal": 1651,
      "Ġacadem": 1652,
      "oks": 1653,
      "ently": 1654,
      "Ġinclude": 1655,
      "Ġincre": 1656,
      "ves": 1657,
      "gen": 1658,
      "Ġexpl": 1659,
      "urs": 1660,
      "estern": 1661,
      "Ġcommon": 1662,
      "ney": 1663,
      "Ġtrad": 1664,
      "Ġ30": 1665,
      "af": 1666,
      "ec": 1667,
      "Ġ189": 1668,
      "Ġprocess": 1669,
      "Ġvir": 1670,
      "Ġlarge": 1671,
      "Ġ2019": 1672,
      "Ġmilitary": 1673,
      "Ġturn": 1674,
      "Ġwhite": 1675,
      "Ġauthor": 1676,
      "vers": 1677,
      "Ġ,": 1678,
      "Ġrepubl": 1679,
      "Ġsal": 1680,
      "Ġfact": 1681,
      "Ġfun": 1682,
      "Ġsports": 1683,
      "Ġplan": 1684,
      "Ġ0": 1685,
      "Ġmor": 1686,
      "Ġshould": 1687,
      "Ġservices": 1688,
      "Ġfurther": 1689,
      "Ġmal": 1690,
      "Ġvideo": 1691,
      "tal": 1692,
      "Ġstyle": 1693,
      "Ġsit": 1694,
      "Ġmun": 1695,
      "Ġgold": 1696,
      "work": 1697,
      "ote": 1698,
      "lo": 1699,
      "Ġpal": 1700,
      "conom": 1701,
      "Ġnort": 1702,
      "Ġaccording": 1703,
      "Ġhy": 1704,
      "Ġ2020": 1705,
      "ones": 1706,
      "Ġamong": 1707,
      "Ġfree": 1708,
      "Ġkill": 1709,
      "iod": 1710,
      "ges": 1711,
      "Ġce": 1712,
      "Ġcouncil": 1713,
      "Ġlim": 1714,
      "Ġstar": 1715,
      "go": 1716,
      "Ġposs": 1717,
      "Ġround": 1718,
      "Ġlevel": 1719,
      "Ġbur": 1720,
      "Ġmarket": 1721,
      "ument": 1722,
      "Ġbill": 1723,
      "Ġeffect": 1724,
      "Ġside": 1725,
      "Ġcentral": 1726,
      "ni": 1727,
      "Ġindust": 1728,
      "ler": 1729,
      "sc": 1730,
      "ries": 1731,
      "gress": 1732,
      "Ġsuper": 1733,
      "oph": 1734,
      "Ġaff": 1735,
      "ots": 1736,
      "Ġtest": 1737,
      "par": 1738,
      "Ġusing": 1739,
      "Ġrock": 1740,
      "Ġnav": 1741,
      "Ġdan": 1742,
      "Ġinformation": 1743,
      "anguage": 1744,
      "Ġcas": 1745,
      "11": 1746,
      "Ġ2000": 1747,
      "ively": 1748,
      "Ġlight": 1749,
      "amb": 1750,
      "though": 1751,
      "Ġunion": 1752,
      "Ġlet": 1753,
      "Ġuk": 1754,
      "ration": 1755,
      "Ġmich": 1756,
      "Ġeconom": 1757,
      "osp": 1758,
      "Ġmale": 1759,
      "umb": 1760,
      "Ġdied": 1761,
      "Ġlat": 1762,
      "wh": 1763,
      "Ġhen": 1764,
      "Ġcommand": 1765,
      "Ġdirector": 1766,
      "read": 1767,
      "Ġtro": 1768,
      "Ġgrand": 1769,
      "Ġinvest": 1770,
      "Ġcommit": 1771,
      "Ġperiod": 1772,
      "aren": 1773,
      "Ġdev": 1774,
      "Ġinf": 1775,
      "ald": 1776,
      "ured": 1777,
      "Ġdoes": 1778,
      "Ġ24": 1779,
      "Ġ2005": 1780,
      "Ġrepl": 1781,
      "Ġchang": 1782,
      "Ġdi": 1783,
      "Ġgra": 1784,
      "Ġperform": 1785,
      "Ġoften": 1786,
      "color": 1787,
      "Ġbase": 1788,
      "Ġannoun": 1789,
      "Ġwebs": 1790,
      "Ġincluded": 1791,
      "Ġroyal": 1792,
      "Ġoriginal": 1793,
      "Ġcat": 1794,
      "Ġren": 1795,
      "Ġsite": 1796,
      "Ġprim": 1797,
      "Ġpolitical": 1798,
      "Ġfem": 1799,
      "iforn": 1800,
      ".,": 1801,
      "ploy": 1802,
      "Ġcy": 1803,
      "Ġappear": 1804,
      "Ġmass": 1805,
      "Ġweek": 1806,
      "Ġalthough": 1807,
      "Ġconc": 1808,
      "Ġstreet": 1809,
      "amer": 1810,
      "Ġmot": 1811,
      "Ġepis": 1812,
      "Ġfather": 1813,
      "198": 1814,
      "Ġcapt": 1815,
      "Ġber": 1816,
      "Ġsil": 1817,
      "Ġve": 1818,
      "Ġcaliforn": 1819,
      "ground": 1820,
      "Ġmuse": 1821,
      "Ġsummer": 1822,
      "Ġdescribed": 1823,
      "Ġnext": 1824,
      "Ġwant": 1825,
      "Ġdeaths": 1826,
      "ky": 1827,
      "ha": 1828,
      "Ġfriend": 1829,
      "Ġ188": 1830,
      "osed": 1831,
      "Ġinit": 1832,
      "Ġill": 1833,
      "Ġallow": 1834,
      "Ġque": 1835,
      "Ġbroad": 1836,
      "Ġciv": 1837,
      "Ġled": 1838,
      "key": 1839,
      "Ġcalifornia": 1840,
      "Ġrich": 1841,
      "ertain": 1842,
      "Ġdirect": 1843,
      "lin": 1844,
      "Ġmult": 1845,
      "Ġoffice": 1846,
      "Ġengland": 1847,
      "Ġcover": 1848,
      "ico": 1849,
      "nal": 1850,
      "side": 1851,
      "ament": 1852,
      "Ġtour": 1853,
      "Ġwithout": 1854,
      "of": 1855,
      "Ġpoint": 1856,
      "ka": 1857,
      "Ġnat": 1858,
      "ump": 1859,
      "Ġprofessional": 1860,
      "Ġrefer": 1861,
      "Ġaustralia": 1862,
      "50": 1863,
      "Ġdepartment": 1864,
      "...": 1865,
      "Ġfeat": 1866,
      "Ġdata": 1867,
      "Ġspace": 1868,
      "Ġproduction": 1869,
      "Ġperfor": 1870,
      "Ġ2004": 1871,
      "ribut": 1872,
      "Ġbeh": 1873,
      "Ġjud": 1874,
      "ws": 1875,
      "Ġfull": 1876,
      "ming": 1877,
      "Ġhaving": 1878,
      "Ġcharacter": 1879,
      "Ġrailway": 1880,
      "Ġlook": 1881,
      "Ġhuman": 1882,
      "mit": 1883,
      "Ġfew": 1884,
      "Ġadmin": 1885,
      "Ġtur": 1886,
      "Ġstory": 1887,
      "Ġtrack": 1888,
      "Ġroman": 1889,
      "Ġhig": 1890,
      "Ġlive": 1891,
      "mar": 1892,
      "Ġsociety": 1893,
      "Ġsold": 1894,
      "Ġdou": 1895,
      "Ġlate": 1896,
      "self": 1897,
      "less": 1898,
      "Ġreview": 1899,
      "Ġcross": 1900,
      "ivid": 1901,
      "Ġappl": 1902,
      "Ġrole": 1903,
      "Ġproduct": 1904,
      "ops": 1905,
      "Ġdu": 1906,
      "ories": 1907,
      "ched": 1908,
      "Ġinvol": 1909,
      "ruction": 1910,
      "ential": 1911,
      "Ġprevious": 1912,
      "Ġsongs": 1913,
      "Ġgrad": 1914,
      "Ġyoung": 1915,
      "Ġfr": 1916,
      "Ġmuseum": 1917,
      "Ġlove": 1918,
      "Ġhall": 1919,
      "Ġsour": 1920,
      "Ġregion": 1921,
      "ners": 1922,
      "Ġrecords": 1923,
      "Ġsele": 1924,
      "Ġwestern": 1925,
      "ta": 1926,
      "cing": 1927,
      "Ġwebsite": 1928,
      "Ġfind": 1929,
      "Ġbig": 1930,
      "ints": 1931,
      "Ġvarious": 1932,
      "ey": 1933,
      "âĢĶ": 1934,
      "Ġbor": 1935,
      "inted": 1936,
      "Ġproper": 1937,
      "ters": 1938,
      "Ġelection": 1939,
      "epend": 1940,
      "Ġpract": 1941,
      "cast": 1942,
      "Ġcost": 1943,
      "wards": 1944,
      "Ġfeder": 1945,
      "Ġmedal": 1946,
      "Ġradio": 1947,
      "Ġstudents": 1948,
      "Ġindia": 1949,
      "Ġmillion": 1950,
      "Ġinterest": 1951,
      "Ġindivid": 1952,
      "Ġmem": 1953,
      "Ġsomet": 1954,
      "Ġperforman": 1955,
      "Ġcontrol": 1956,
      "dom": 1957,
      "Ġmoved": 1958,
      "Ġtitle": 1959,
      "gcolor": 1960,
      "aff": 1961,
      "Ġstruct": 1962,
      "Ġoffer": 1963,
      "rest": 1964,
      "Ġawards": 1965,
      "ilar": 1966,
      "Ġten": 1967,
      "Ġfeature": 1968,
      "Ġgiven": 1969,
      "Ġ186": 1970,
      "Ġestablish": 1971,
      "Ġdays": 1972,
      "Ġboard": 1973,
      "Ġjames": 1974,
      "Ġbecome": 1975,
      "off": 1976,
      "Ġmark": 1977,
      "cle": 1978,
      "Ġcivil": 1979,
      "Ġtotal": 1980,
      "itor": 1981,
      "Ġnever": 1982,
      "Ġaustralian": 1983,
      "lex": 1984,
      "Ġpolitic": 1985,
      "tt": 1986,
      "ville": 1987,
      "ris": 1988,
      "Ġcir": 1989,
      "Ġamerica": 1990,
      "Ġplaces": 1991,
      "Ġphot": 1992,
      "Ġstarted": 1993,
      "Ġforce": 1994,
      "Ġcame": 1995,
      "Ġden": 1996,
      "Ġfund": 1997,
      "ying": 1998,
      "Ġcase": 1999,
      "Ġcoll": 2000,
      "ius": 2001,
      "Ġbrother": 2002,
      "Ġpriv": 2003,
      "ference": 2004,
      "Ġmur": 2005,
      "Ġcomb": 2006,
      "Ġ22": 2007,
      "rap": 2008,
      "Ġimportant": 2009,
      "Ġver": 2010,
      "Ġpopular": 2011,
      "hern": 2012,
      "ency": 2013,
      "Ġmart": 2014,
      "Ġwritten": 2015,
      "Ġarg": 2016,
      "Ġwent": 2017,
      "Ġclaim": 2018,
      "acks": 2019,
      "Ġbgcolor": 2020,
      "Ġphys": 2021,
      "Ġthom": 2022,
      "Ġlou": 2023,
      "Ġadminist": 2024,
      "ront": 2025,
      "field": 2026,
      "back": 2027,
      "Ġgreen": 2028,
      "Ġdam": 2029,
      "Ġfrance": 2030,
      "aut": 2031,
      "Ġfire": 2032,
      "Ġ23": 2033,
      "uel": 2034,
      "Ġgeorge": 2035,
      "ship": 2036,
      "Ġnight": 2037,
      "Ġsam": 2038,
      "han": 2039,
      "Ġcreated": 2040,
      "Ġhere": 2041,
      "Ġproduced": 2042,
      "Ġ187": 2043,
      "Ġ2021": 2044,
      "Ġder": 2045,
      "Ġ2003": 2046,
      "Ġinfl": 2047,
      "Ġintro": 2048,
      "Ġcanada": 2049,
      "Ġcho": 2050,
      "Ġeuropean": 2051,
      "Ġversion": 2052,
      "Ġview": 2053,
      "Ġpan": 2054,
      "197": 2055,
      "ya": 2056,
      "Ġindepend": 2057,
      "Ġmedia": 2058,
      "Ġmc": 2059,
      "Ġpersonal": 2060,
      "Ġscience": 2061,
      "Ġlow": 2062,
      "oney": 2063,
      "Ġhost": 2064,
      "Ġdebut": 2065,
      "Ġpay": 2066,
      "Ġevents": 2067,
      "Ġbal": 2068,
      "ering": 2069,
      "raft": 2070,
      "Ġsent": 2071,
      "ators": 2072,
      "ael": 2073,
      "Ġconn": 2074,
      "Ġlib": 2075,
      "Ġmac": 2076,
      "Ġsat": 2077,
      "Ġavail": 2078,
      "Ġjournal": 2079,
      "itar": 2080,
      "ours": 2081,
      "Ġ2002": 2082,
      "ex": 2083,
      "xim": 2084,
      "aining": 2085,
      "iment": 2086,
      "icle": 2087,
      "Ġlittle": 2088,
      "ample": 2089,
      "atch": 2090,
      "Ġsay": 2091,
      "Ġdavid": 2092,
      "imin": 2093,
      "Ġcommission": 2094,
      "Ġpaul": 2095,
      "Ġmaking": 2096,
      "Ġalum": 2097,
      "ipp": 2098,
      "row": 2099,
      "Ġput": 2100,
      "Ġannounced": 2101,
      "Ġless": 2102,
      "Ġcop": 2103,
      "30": 2104,
      "Ġbank": 2105,
      "den": 2106,
      "Ġsimilar": 2107,
      "Ġhill": 2108,
      "Ġident": 2109,
      "Ġappo": 2110,
      "Ġdemoc": 2111,
      "gether": 2112,
      "Ġtogether": 2113,
      "ending": 2114,
      "ogn": 2115,
      "Ġprem": 2116,
      "stand": 2117,
      "Ġmodern": 2118,
      "Ġur": 2119,
      "Ġwood": 2120,
      "nd": 2121,
      "ross": 2122,
      "Ġcond": 2123,
      "Ġalbums": 2124,
      "Ġsound": 2125,
      "Ġconv": 2126,
      "Ġ2001": 2127,
      "Ġcanadian": 2128,
      "irl": 2129,
      "pro": 2130,
      "Ġmeet": 2131,
      "Ġaccess": 2132,
      "Ġham": 2133,
      "22": 2134,
      "Ġworking": 2135,
      "Ġfest": 2136,
      "Ġmust": 2137,
      "Ġlear": 2138,
      "Ġfall": 2139,
      "ways": 2140,
      "Ġ100": 2141,
      "Ġrelations": 2142,
      "Ġdoc": 2143,
      "Ġassist": 2144,
      "Ġparticip": 2145,
      "Ġide": 2146,
      "ania": 2147,
      "Ġ26": 2148,
      "Ġnorthern": 2149,
      "Ġhot": 2150,
      "Ġmatch": 2151,
      "vir": 2152,
      "Ġposition": 2153,
      "Ġbooks": 2154,
      "reg": 2155,
      "Ġgod": 2156,
      "Ġlost": 2157,
      "bb": 2158,
      "empt": 2159,
      "ological": 2160,
      "dle": 2161,
      "Ġmunicip": 2162,
      "aken": 2163,
      "Ġnews": 2164,
      "ware": 2165,
      "Ġhold": 2166,
      "bor": 2167,
      "Ġstep": 2168,
      "Ġanim": 2169,
      "Ġminister": 2170,
      "hers": 2171,
      "Ġtyp": 2172,
      "Ġmater": 2173,
      "ago": 2174,
      "hod": 2175,
      "Ġonce": 2176,
      "Ġ1990": 2177,
      "ense": 2178,
      "Ġexec": 2179,
      "Ġ28": 2180,
      "Ġcust": 2181,
      "Ġvo": 2182,
      "Ġca": 2183,
      "Ġdest": 2184,
      "Ġmarried": 2185,
      "uf": 2186,
      "Ġrace": 2187,
      "Ġ27": 2188,
      "Ġliter": 2189,
      "Ġpolice": 2190,
      "olution": 2191,
      "ades": 2192,
      "itect": 2193,
      "ule": 2194,
      "oss": 2195,
      "Ġworked": 2196,
      "Ġsn": 2197,
      "thern": 2198,
      "Ġteams": 2199,
      "Ġpot": 2200,
      "Ġfa": 2201,
      "Ġtax": 2202,
      "ida": 2203,
      "Ġcompanies": 2204,
      "Ġhard": 2205,
      "omb": 2206,
      "Ġhor": 2207,
      "val": 2208,
      "Ġsecret": 2209,
      "ances": 2210,
      "Ġemploy": 2211,
      "Ġze": 2212,
      "icular": 2213,
      "Ġhalf": 2214,
      "acy": 2215,
      "Ġgrow": 2216,
      "rote": 2217,
      "Ġdefe": 2218,
      "Ġbelie": 2219,
      "Ġavailable": 2220,
      "ached": 2221,
      "reek": 2222,
      "Ġhous": 2223,
      "Ġarchitect": 2224,
      "Ġpap": 2225,
      "Ġtreat": 2226,
      "iction": 2227,
      "olic": 2228,
      "Ġothers": 2229,
      "Ġpur": 2230,
      "hib": 2231,
      "Ġtex": 2232,
      "Ġaud": 2233,
      "Ġbattle": 2234,
      "ably": 2235,
      "Ġfight": 2236,
      "Ġet": 2237,
      "Ġgermany": 2238,
      "Ġschools": 2239,
      "ication": 2240,
      "Ġvoc": 2241,
      "ique": 2242,
      "Ġbody": 2243,
      "itive": 2244,
      "Ġcoach": 2245,
      "iding": 2246,
      "Ġareas": 2247,
      "Ġkingdom": 2248,
      "align": 2249,
      "Ġmex": 2250,
      "isc": 2251,
      "Ġsouthern": 2252,
      "Ġmel": 2253,
      "cover": 2254,
      "ee": 2255,
      "Ġben": 2256,
      "Ġresults": 2257,
      "Ġpromot": 2258,
      "Ġsem": 2259,
      "Ġconstit": 2260,
      "ids": 2261,
      "wor": 2262,
      "Ġfell": 2263,
      "Ġmic": 2264,
      "Ġjoined": 2265,
      "burg": 2266,
      "Ġchina": 2267,
      "idence": 2268,
      "Ġattack": 2269,
      "utes": 2270,
      "Ġimpro": 2271,
      "ification": 2272,
      "Ġmother": 2273,
      "Ġsun": 2274,
      "wood": 2275,
      "ki": 2276,
      "Ġalumni": 2277,
      "Ġchief": 2278,
      "iting": 2279,
      "sequ": 2280,
      "Ġath": 2281,
      "Ġmad": 2282,
      "ope": 2283,
      "Ġut": 2284,
      "rie": 2285,
      "Ġtradition": 2286,
      "Ġsug": 2287,
      "Ġtom": 2288,
      "Ġrelease": 2289,
      "Ġgar": 2290,
      "ability": 2291,
      "Ġmary": 2292,
      "Ġaver": 2293,
      "Ġq": 2294,
      "hel": 2295,
      "used": 2296,
      "over": 2297,
      "Ġwind": 2298,
      "eth": 2299,
      "Ġlanguage": 2300,
      "Ġbuildings": 2301,
      "Ġarr": 2302,
      "ected": 2303,
      "Ġaway": 2304,
      "Ġ1999": 2305,
      "Ġproduc": 2306,
      "Ġthink": 2307,
      "rew": 2308,
      "pr": 2309,
      "ned": 2310,
      "Ġbegin": 2311,
      "Ġfoc": 2312,
      "Ġmean": 2313,
      "Ġfront": 2314,
      "Ġcou": 2315,
      "Ġgirl": 2316,
      "Ġtransport": 2317,
      "Ġpoints": 2318,
      "Ġwashing": 2319,
      "aint": 2320,
      "Ġtor": 2321,
      "view": 2322,
      "Ġflor": 2323,
      "Ġartist": 2324,
      "Ġground": 2325,
      "Ġreturned": 2326,
      "viron": 2327,
      "play": 2328,
      "Ġitalian": 2329,
      "ari": 2330,
      "Ġcaus": 2331,
      "Ġdig": 2332,
      "Ġwrote": 2333,
      "196": 2334,
      "aign": 2335,
      "Ġjapanese": 2336,
      "Ġcoast": 2337,
      "Ġ1980": 2338,
      "Ġcustom": 2339,
      "Ġanal": 2340,
      "year": 2341,
      "Ġjose": 2342,
      "Ġhosp": 2343,
      "Ġrobert": 2344,
      "Ġdut": 2345,
      "Ġpen": 2346,
      "Ġcompos": 2347,
      "Ġdaugh": 2348,
      "Ġproble": 2349,
      "Ġvan": 2350,
      "Ġattempt": 2351,
      "Ġcommitte": 2352,
      "Ġopened": 2353,
      "Ġafrican": 2354,
      "Ġwall": 2355,
      "Ġparticular": 2356,
      "Ġchart": 2357,
      "Ġperformance": 2358,
      "Ġlaun": 2359,
      "Ġinflu": 2360,
      "Ġenviron": 2361,
      "Ġlake": 2362,
      "Ġtraining": 2363,
      "Ġpast": 2364,
      "sy": 2365,
      "isl": 2366,
      "Ġonline": 2367,
      "craft": 2368,
      "Ġrul": 2369,
      "Ġdemocr": 2370,
      "iers": 2371,
      "=#": 2372,
      "my": 2373,
      "Ġhistoric": 2374,
      "Ġball": 2375,
      "Ġenter": 2376,
      "ither": 2377,
      "Ġpers": 2378,
      "ising": 2379,
      "Ġkey": 2380,
      "Ġgroups": 2381,
      "oor": 2382,
      "Ġacross": 2383,
      "Ġmix": 2384,
      "Ġmaterial": 2385,
      "Ġexample": 2386,
      "ked": 2387,
      "Ġ29": 2388,
      "Ġvot": 2389,
      "Ġfut": 2390,
      "Ġfootballers": 2391,
      "Ġstrong": 2392,
      "Ġstage": 2393,
      "Ġparl": 2394,
      "Ġwil": 2395,
      "Ġspan": 2396,
      "Ġwashington": 2397,
      "ateg": 2398,
      "most": 2399,
      "Ġpolic": 2400,
      "Ġbay": 2401,
      "ga": 2402,
      "Ġheav": 2403,
      "Ġmagaz": 2404,
      "ij": 2405,
      "Ġqual": 2406,
      "Ġtechnology": 2407,
      "Ġcampaign": 2408,
      "uation": 2409,
      "Ġach": 2410,
      "Ġprovince": 2411,
      "Ġtheat": 2412,
      "rian": 2413,
      "Ġkeep": 2414,
      "Ġnotes": 2415,
      "Ġnetwork": 2416,
      "Ġcath": 2417,
      "Ġsus": 2418,
      "ban": 2419,
      "Ġfail": 2420,
      "Ġfood": 2421,
      "Ġarts": 2422,
      "Ġgoing": 2423,
      "Ġinstitute": 2424,
      "ishing": 2425,
      "cis": 2426,
      "icles": 2427,
      "Ġscott": 2428,
      "40": 2429,
      "Ġhapp": 2430,
      "Ġangel": 2431,
      "ii": 2432,
      "Ġfounded": 2433,
      "Ġconsidered": 2434,
      "Ġrelig": 2435,
      "wer": 2436,
      "Ġfort": 2437,
      "nes": 2438,
      "Ġinitial": 2439,
      "ead": 2440,
      "Ġbasket": 2441,
      "Ġ1998": 2442,
      "Ġexecut": 2443,
      "Ġrecogn": 2444,
      "Ġcand": 2445,
      "ergy": 2446,
      "Ġtourn": 2447,
      "Ġcontinued": 2448,
      "itz": 2449,
      "Ġrights": 2450,
      "Ġwife": 2451,
      "Ġtv": 2452,
      "Ġlu": 2453,
      "Ġrussian": 2454,
      "Ġbirth": 2455,
      "asons": 2456,
      "Ġsym": 2457,
      "Ġgun": 2458,
      "Ġthomas": 2459,
      "Ġpit": 2460,
      "Ġrecorded": 2461,
      "la": 2462,
      "Ġacademy": 2463,
      "Ġchange": 2464,
      "Ġprovide": 2465,
      "Ġaccount": 2466,
      "Ġconstruction": 2467,
      "iament": 2468,
      "Ġfeatures": 2469,
      "ala": 2470,
      "kn": 2471,
      "Ġmanagement": 2472,
      "Ġtar": 2473,
      "posed": 2474,
      "ams": 2475,
      "Ġcompleted": 2476,
      "Ġable": 2477,
      "Ġplaying": 2478,
      "Ġdecl": 2479,
      "Ġexist": 2480,
      "Ġtoo": 2481,
      "Ġcome": 2482,
      "Ġquest": 2483,
      "Ġviol": 2484,
      "Ġplat": 2485,
      "Ġmodel": 2486,
      "Ġforces": 2487,
      "Ġlibr": 2488,
      "Ġmoney": 2489,
      "berg": 2490,
      "Ġcentre": 2491,
      "Ġalex": 2492,
      "west": 2493,
      "Ġregular": 2494,
      "Ġgall": 2495,
      "hold": 2496,
      "Ġdeg": 2497,
      "Ġ/": 2498,
      "Ġmethod": 2499,
      "Ġmedical": 2500,
      "Ġcard": 2501,
      "Ġemp": 2502,
      "Ġparliament": 2503,
      "ems": 2504,
      "inese": 2505,
      "Ġmiddle": 2506,
      "Ġhom": 2507,
      "Ġexpress": 2508,
      "orm": 2509,
      "Ġcommittee": 2510,
      "Ġtoday": 2511,
      "hi": 2512,
      "Ġhit": 2513,
      "Ġkm": 2514,
      "ensive": 2515,
      "cks": 2516,
      "Ġobs": 2517,
      "ilities": 2518,
      "Ġ1996": 2519,
      "Ġelected": 2520,
      "Ġguitar": 2521,
      "Ġtim": 2522,
      "Ġstudy": 2523,
      "time": 2524,
      "Ġdeveloped": 2525,
      "Ġcharles": 2526,
      "Ġtype": 2527,
      "Ġnovel": 2528,
      "reen": 2529,
      "23": 2530,
      "Ġenc": 2531,
      "Ġrange": 2532,
      "Ġ()": 2533,
      "Ġdirected": 2534,
      "25": 2535,
      "ude": 2536,
      "Ġcommer": 2537,
      "Ġenvironment": 2538,
      "Ġens": 2539,
      "Ġ1970": 2540,
      "aland": 2541,
      "Ġcit": 2542,
      "Ġupon": 2543,
      "aker": 2544,
      "urity": 2545,
      "Ġkar": 2546,
      "Ġfif": 2547,
      "Ġran": 2548,
      "elling": 2549,
      "Ġfestival": 2550,
      "Ġnatural": 2551,
      "Ġeight": 2552,
      "Ġregister": 2553,
      "Ġbud": 2554,
      "oot": 2555,
      "Ġdesp": 2556,
      "Ġchristian": 2557,
      "Ġbrown": 2558,
      "ston": 2559,
      "Ġ1997": 2560,
      "ients": 2561,
      "Ġvirgin": 2562,
      "Ġsea": 2563,
      "Ġappointed": 2564,
      "Ġartists": 2565,
      "Ġmichael": 2566,
      "Ġstudies": 2567,
      "Ġrepublic": 2568,
      "Ġepisode": 2569,
      "tra": 2570,
      "Ġagre": 2571,
      "Ġ50": 2572,
      "ili": 2573,
      "Ġbasketball": 2574,
      "ba": 2575,
      "center": 2576,
      "ume": 2577,
      "Ġfinan": 2578,
      "Ġbecom": 2579,
      "Ġcirc": 2580,
      "ye": 2581,
      "Ġsigned": 2582,
      "Ġprivate": 2583,
      "Ġreported": 2584,
      "cell": 2585,
      "Ġindustry": 2586,
      "Ġplant": 2587,
      "ula": 2588,
      "ination": 2589,
      "Ġrob": 2590,
      "Ġfederal": 2591,
      "Ġthroughout": 2592,
      "Ġolympics": 2593,
      "rick": 2594,
      "Ġstaff": 2595,
      "ota": 2596,
      "ases": 2597,
      "Ġexperience": 2598,
      "ements": 2599,
      "atives": 2600,
      "Ġlouis": 2601,
      "Ġhimself": 2602,
      "Ġmonths": 2603,
      "Ġcomput": 2604,
      "Ġroom": 2605,
      "Ġprote": 2606,
      "ani": 2607,
      "iff": 2608,
      "Ġprinc": 2609,
      "Ġcens": 2610,
      "Ġroute": 2611,
      "ush": 2612,
      "men": 2613,
      "ications": 2614,
      "aced": 2615,
      "rael": 2616,
      "band": 2617,
      "hem": 2618,
      "Ġopt": 2619,
      "nel": 2620,
      "ificant": 2621,
      "Ġ185": 2622,
      "Ġrespons": 2623,
      "Ġfemale": 2624,
      "Ġappeared": 2625,
      "Ġcolor": 2626,
      "Ġsoft": 2627,
      "Ġrank": 2628,
      "Ġtexas": 2629,
      "Ġseven": 2630,
      "Ġbrand": 2631,
      "Ġsuccessful": 2632,
      "Ġcell": 2633,
      "Ġdesigned": 2634,
      "Ġchinese": 2635,
      "Ġculture": 2636,
      "Ġeastern": 2637,
      "Ġbetter": 2638,
      "Ġgot": 2639,
      "Ġafrica": 2640,
      "Ġly": 2641,
      "Ġaverage": 2642,
      "Ġaction": 2643,
      "Ġgradu": 2644,
      "Ġcam": 2645,
      "24": 2646,
      "Ġgoal": 2647,
      "Ġstri": 2648,
      "Ġassemb": 2649,
      "Ġtravel": 2650,
      "Ġachie": 2651,
      "Ġdiscover": 2652,
      "eter": 2653,
      "Ġathlet": 2654,
      "odes": 2655,
      "ceed": 2656,
      "here": 2657,
      "atory": 2658,
      "Ġcarol": 2659,
      "Ġleaders": 2660,
      "sel": 2661,
      "aries": 2662,
      "head": 2663,
      "Ġsepar": 2664,
      "Ġ1995": 2665,
      "ply": 2666,
      "Ġsignificant": 2667,
      "Ġformed": 2668,
      "Ġinj": 2669,
      "icated": 2670,
      "Ġchair": 2671,
      "Ġchall": 2672,
      "Ġincludes": 2673,
      "Ġnar": 2674,
      "Ġcondu": 2675,
      "Ġ1992": 2676,
      "Ġhospital": 2677,
      "Ġbad": 2678,
      "Ġearl": 2679,
      "Ġsex": 2680,
      "Ġ1994": 2681,
      "Ġoriginally": 2682,
      "Ġsystems": 2683,
      "Ġpenn": 2684,
      "Ġparis": 2685,
      "Ġdeal": 2686,
      "Ġtaken": 2687,
      "Ġcra": 2688,
      "Ġcontract": 2689,
      "Ġdaughter": 2690,
      "Ġglob": 2691,
      "ado": 2692,
      "Ġfig": 2693,
      "Ġfuture": 2694,
      "imate": 2695,
      "ett": 2696,
      "Ġho": 2697,
      "Ġsquad": 2698,
      "Ġseen": 2699,
      "Ġliber": 2700,
      "ulated": 2701,
      "ona": 2702,
      "aps": 2703,
      "Ġcorn": 2704,
      "ving": 2705,
      "Ġmont": 2706,
      "bc": 2707,
      "Ġkore": 2708,
      "Ġsection": 2709,
      "Ġfav": 2710,
      "cially": 2711,
      "Ġfrank": 2712,
      "Ġcut": 2713,
      "Ġspanish": 2714,
      "Ġscient": 2715,
      "edy": 2716,
      "idae": 2717,
      "ray": 2718,
      "Ġcred": 2719,
      "Ġtry": 2720,
      "Ġbul": 2721,
      "Ġvictor": 2722,
      "Ġol": 2723,
      "Ġchap": 2724,
      "Ġ=": 2725,
      "Ġban": 2726,
      "Ġchann": 2727,
      "Ġzealand": 2728,
      "Ġtournament": 2729,
      "):": 2730,
      "Ġbene": 2731,
      "Ġcurrently": 2732,
      "omm": 2733,
      "Ġchampionships": 2734,
      "Ġprior": 2735,
      "Ġpeter": 2736,
      "Ġblue": 2737,
      "oon": 2738,
      "sec": 2739,
      "Ġhun": 2740,
      "Ġacqu": 2741,
      "Ġcapital": 2742,
      "Ġloss": 2743,
      "ript": 2744,
      "Ġshows": 2745,
      "Ġven": 2746,
      "Ġha": 2747,
      "Ġinstead": 2748,
      "Ġlower": 2749,
      "Ġdom": 2750,
      "Ġbox": 2751,
      "Ġstations": 2752,
      "Ġneg": 2753,
      "iation": 2754,
      "bl": 2755,
      "Ġmr": 2756,
      "ping": 2757,
      "Ġdespite": 2758,
      "Ġisrael": 2759,
      "Ġ1960": 2760,
      "Ġimm": 2761,
      ",\"": 2762,
      "ander": 2763,
      "Ġmaster": 2764,
      "Ġenergy": 2765,
      "ada": 2766,
      "aves": 2767,
      "Ġlegisl": 2768,
      "Ġcolon": 2769,
      "Ġheart": 2770,
      "Ġbat": 2771,
      "arter": 2772,
      "ireland": 2773,
      "Ġterm": 2774,
      "Ġleast": 2775,
      "Ġrichard": 2776,
      "Ġcatholic": 2777,
      "Ġsecurity": 2778,
      "Ġentire": 2779,
      "iple": 2780,
      "apt": 2781,
      "thing": 2782,
      "ria": 2783,
      "Ġcongress": 2784,
      "Ġprofessor": 2785,
      "Ġforest": 2786,
      "enth": 2787,
      "Ġleading": 2788,
      "Ġsyn": 2789,
      "Ġinn": 2790,
      "asc": 2791,
      "Ġmach": 2792,
      "Ġbroadcast": 2793,
      "Ġple": 2794,
      "Ġwriters": 2795,
      "Ġsand": 2796,
      "Ġconference": 2797,
      "Ġtransl": 2798,
      "Ġdocument": 2799,
      "idents": 2800,
      "Ġara": 2801,
      "Ġfer": 2802,
      "Ġabove": 2803,
      "Ġorganization": 2804,
      "Ġ1993": 2805,
      "writ": 2806,
      "ror": 2807,
      "Ġcollection": 2808,
      "Ġgard": 2809,
      "Ġpossible": 2810,
      "Ġmeas": 2811,
      "Ġbow": 2812,
      "Ġstop": 2813,
      "Ġsingles": 2814,
      "Ġfle": 2815,
      "Ġfrancis": 2816,
      "Ġcountries": 2817,
      "ini": 2818,
      "str": 2819,
      "Ġcov": 2820,
      "asing": 2821,
      "Ġ#": 2822,
      "Ġsaw": 2823,
      "new": 2824,
      "Ġclose": 2825,
      "Ġaircraft": 2826,
      "Ġreb": 2827,
      "ny": 2828,
      "Ġconserv": 2829,
      "Ġeither": 2830,
      "roy": 2831,
      "Ġalways": 2832,
      "Ġgave": 2833,
      "Ġcensus": 2834,
      "ites": 2835,
      "istry": 2836,
      "Ġcompetition": 2837,
      "Ġ1991": 2838,
      "za": 2839,
      "Ġess": 2840,
      "Ġanc": 2841,
      "ened": 2842,
      "Ġmusical": 2843,
      "Ġox": 2844,
      "Ġcric": 2845,
      "Ġmagazine": 2846,
      "pan": 2847,
      "bour": 2848,
      "une": 2849,
      "Ġmovement": 2850,
      "Ġcandid": 2851,
      "lands": 2852,
      "ont": 2853,
      "king": 2854,
      "riate": 2855,
      "Ġdeter": 2856,
      "Ġindependent": 2857,
      "har": 2858,
      "Ġstra": 2859,
      "airs": 2860,
      "Ġhenry": 2861,
      "Ġforeign": 2862,
      "Ġswed": 2863,
      "Ġsuggest": 2864,
      "Ġsant": 2865,
      "Ġ31": 2866,
      "Ġkilled": 2867,
      "Ġgive": 2868,
      "Ġchic": 2869,
      "hood": 2870,
      "Ġwal": 2871,
      "Ġsaint": 2872,
      "Ġsenior": 2873,
      "Ġperformed": 2874,
      "oviet": 2875,
      "Ġ40": 2876,
      "Ġeth": 2877,
      "Ġlog": 2878,
      "Ġcourse": 2879,
      "ift": 2880,
      "195": 2881,
      "itt": 2882,
      "Ġactress": 2883,
      "Ġeventually": 2884,
      "olf": 2885,
      "Ġwalk": 2886,
      "ox": 2887,
      "not": 2888,
      "Ġprimary": 2889,
      "Ġsmith": 2890,
      "Ġclos": 2891,
      "ufact": 2892,
      "vey": 2893,
      "Ġlibrary": 2894,
      "Ġanti": 2895,
      "aged": 2896,
      "iences": 2897,
      "Ġmos": 2898,
      "ita": 2899,
      "Ġcricket": 2900,
      "Ġtheatre": 2901,
      "Ġfeel": 2902,
      "Ġpurch": 2903,
      "arian": 2904,
      "Ġgovernor": 2905,
      "Ġtext": 2906,
      "Ġbaseball": 2907,
      "Ġpra": 2908,
      "Ġofficer": 2909,
      "Ġstudio": 2910,
      "Ġexhib": 2911,
      "ilies": 2912,
      "Ġconsist": 2913,
      "Ġemer": 2914,
      "Ġjew": 2915,
      "Ġ:": 2916,
      "Ġclear": 2917,
      "ught": 2918,
      "Ġface": 2919,
      "Ġmanufact": 2920,
      "Ġwoman": 2921,
      "194": 2922,
      "erous": 2923,
      "Ġself": 2924,
      "Ġpeak": 2925,
      "Ġparen": 2926,
      "Ġbreak": 2927,
      "Ġterrit": 2928,
      "ging": 2929,
      "Ġwhy": 2930,
      "Ġsurv": 2931,
      "aches": 2932,
      "Ġoh": 2933,
      "ores": 2934,
      "Ġpric": 2935,
      "win": 2936,
      "Ġaccept": 2937,
      "ym": 2938,
      "Ġcorpor": 2939,
      "Ġfollowed": 2940,
      "Ġorganiz": 2941,
      "Ġstandard": 2942,
      "Ġusually": 2943,
      "Ġmight": 2944,
      "Ġinvolved": 2945,
      "Ġsubject": 2946,
      "Ġadded": 2947,
      "fic": 2948,
      "gian": 2949,
      "Ġsubsequ": 2950,
      "Ġvia": 2951,
      "Ġfinished": 2952,
      "ano": 2953,
      "ura": 2954,
      "je": 2955,
      "Ġsoon": 2956,
      "Ġearth": 2957,
      "ike": 2958,
      "abor": 2959,
      "km": 2960,
      "tar": 2961,
      "Ġpsy": 2962,
      "Ġrelationship": 2963,
      "face": 2964,
      "Ġpun": 2965,
      "Ġindividual": 2966,
      "oke": 2967,
      "Ġ184": 2968,
      "Ġinvestig": 2969,
      "Ġtransfer": 2970,
      "Ġbish": 2971,
      "istan": 2972,
      "Ġprovided": 2973,
      "Ġbran": 2974,
      "Ġwriting": 2975,
      "Ġreading": 2976,
      "use": 2977,
      "lect": 2978,
      "Ġhigher": 2979,
      "Ġfourth": 2980,
      "outh": 2981,
      "ires": 2982,
      "Ġsinger": 2983,
      "Ġcertain": 2984,
      "ready": 2985,
      "Ġmeans": 2986,
      "Ġlargest": 2987,
      "193": 2988,
      "zil": 2989,
      "rd": 2990,
      "Ġireland": 2991,
      "Ġbridge": 2992,
      "||": 2993,
      "Ġwa": 2994,
      "medi": 2995,
      "utions": 2996,
      "Ġec": 2997,
      "jo": 2998,
      "Ġmission": 2999,
      "Ġris": 3000,
      "ights": 3001,
      "Ġcreate": 3002,
      "Ġtal": 3003,
      "Ġrh": 3004,
      "Ġleader": 3005,
      "Ġadditional": 3006,
      "60": 3007,
      "ĠÂ": 3008,
      "Ġrug": 3009,
      "Ġconnect": 3010,
      "ify": 3011,
      "po": 3012,
      "Ġeffort": 3013,
      "Ġrespect": 3014,
      "Ġolympic": 3015,
      "rup": 3016,
      "Ġpoet": 3017,
      "hol": 3018,
      "Ġedition": 3019,
      "Ġmonth": 3020,
      "Ġlad": 3021,
      "Ġthings": 3022,
      "fect": 3023,
      "Ġ1988": 3024,
      "rel": 3025,
      "Ġ1989": 3026,
      "va": 3027,
      "Ġlegal": 3028,
      "Ġlot": 3029,
      "Ġtrade": 3030,
      "Ġregard": 3031,
      "ockey": 3032,
      "enc": 3033,
      "Ġvirginia": 3034,
      "oper": 3035,
      "Ġnavy": 3036,
      "Ġfeatured": 3037,
      "ibility": 3038,
      "Ġexam": 3039,
      "Ġlord": 3040,
      "Ġfinancial": 3041,
      "ja": 3042,
      "Ġkh": 3043,
      "Ġpolitician": 3044,
      "Ġwat": 3045,
      "Ġtrib": 3046,
      "Ġissues": 3047,
      "aching": 3048,
      "istics": 3049,
      "Ġbehind": 3050,
      "Ġlisted": 3051,
      "clus": 3052,
      "Ġtrump": 3053,
      "Ġneigh": 3054,
      "igan": 3055,
      "Ġemb": 3056,
      "Ġtaking": 3057,
      "Ġairport": 3058,
      "Ġunderstand": 3059,
      "Ġawarded": 3060,
      "Ġnomin": 3061,
      "Ġassembly": 3062,
      "erve": 3063,
      "27": 3064,
      "pecially": 3065,
      "Ġfocus": 3066,
      "Ġbelow": 3067,
      "Ġrather": 3068,
      "Ġpie": 3069,
      "ww": 3070,
      "igned": 3071,
      "cher": 3072,
      "Ġobject": 3073,
      "Ġoutside": 3074,
      "Ġsoviet": 3075,
      "ols": 3076,
      "Ġalready": 3077,
      "Ġalmost": 3078,
      "Ġsir": 3079,
      "Ġmexico": 3080,
      "Ġoperations": 3081,
      "wing": 3082,
      "well": 3083,
      "da": 3084,
      "ola": 3085,
      "Ġamb": 3086,
      "Ġfunction": 3087,
      "ram": 3088,
      "reat": 3089,
      "Ġvalley": 3090,
      "28": 3091,
      "Ġsize": 3092,
      "Ġproducts": 3093,
      "people": 3094,
      "Ġsha": 3095,
      "Ġdetail": 3096,
      "Ġwriter": 3097,
      "Ġrap": 3098,
      "ream": 3099,
      "Ġschol": 3100,
      "gl": 3101,
      "ella": 3102,
      "Ġdegree": 3103,
      "Ġcritic": 3104,
      "Ġthus": 3105,
      "Ġeconomic": 3106,
      "Ġmountain": 3107,
      "ples": 3108,
      "Ġchicago": 3109,
      "Ġveh": 3110,
      "Ġcontribut": 3111,
      "aur": 3112,
      "Ġminor": 3113,
      "Ġabs": 3114,
      "26": 3115,
      "Ġwild": 3116,
      "ental": 3117,
      "Ġgrant": 3118,
      "ena": 3119,
      "Ġtenn": 3120,
      "Ġcommercial": 3121,
      "ios": 3122,
      "Ġintroduced": 3123,
      "Ġdate": 3124,
      "Ġactor": 3125,
      "Ġproperty": 3126,
      "Ġlie": 3127,
      "Ġcele": 3128,
      "Ġregional": 3129,
      "Ġscreen": 3130,
      "Ġremained": 3131,
      "Ġbrazil": 3132,
      "Ġcomplex": 3133,
      "ulty": 3134,
      "ns": 3135,
      "leg": 3136,
      "Ġstudent": 3137,
      "Ġrepublican": 3138,
      "Ġwid": 3139,
      "Ġparts": 3140,
      "ste": 3141,
      "Ġfoundation": 3142,
      "Ġnotable": 3143,
      "iro": 3144,
      "ribution": 3145,
      "fin": 3146,
      "Ġsources": 3147,
      "tic": 3148,
      "Ġplatform": 3149,
      "Ġbackground": 3150,
      "Ġlimited": 3151,
      "ffic": 3152,
      "ription": 3153,
      "Ġlik": 3154,
      "dr": 3155,
      "Ġhistorical": 3156,
      "based": 3157,
      "Ġfair": 3158,
      "orial": 3159,
      "uals": 3160,
      "Ġflorida": 3161,
      "chan": 3162,
      "Ġcab": 3163,
      "Ġmanager": 3164,
      "Ġcharacters": 3165,
      "Ġunits": 3166,
      "Ġscot": 3167,
      "Ġdigital": 3168,
      "eds": 3169,
      "ask": 3170,
      "hest": 3171,
      "Ġhu": 3172,
      "Ġord": 3173,
      "Ġprison": 3174,
      "ĠĠčĊ": 3175,
      "aring": 3176,
      "Ġitaly": 3177,
      "29": 3178,
      "istic": 3179,
      "gu": 3180,
      "Ġunit": 3181,
      "oma": 3182,
      "Ġdie": 3183,
      "Ġpac": 3184,
      "Ġsar": 3185,
      "Ġprob": 3186,
      "Ġpsych": 3187,
      "Ġpolicy": 3188,
      "ends": 3189,
      "Ġtrust": 3190,
      "olk": 3191,
      "road": 3192,
      "Ġespecially": 3193,
      "board": 3194,
      "mal": 3195,
      "Ġ1987": 3196,
      "80": 3197,
      "orpor": 3198,
      "iety": 3199,
      "Ġpage": 3200,
      "Ġoil": 3201,
      "Ġactive": 3202,
      "Ġfel": 3203,
      "Ġmaint": 3204,
      "Ġpict": 3205,
      "Ġstated": 3206,
      "Ġquick": 3207,
      "Ġjack": 3208,
      "Ġrussia": 3209,
      "no": 3210,
      "wa": 3211,
      "Ġcomplete": 3212,
      "american": 3213,
      "Ġsaf": 3214,
      "Ġpil": 3215,
      "Ġboy": 3216,
      "Ġoccur": 3217,
      "Ġfamilies": 3218,
      "ylv": 3219,
      "Ġgoals": 3220,
      "igr": 3221,
      "Ġbeginning": 3222,
      "Ġtell": 3223,
      "ips": 3224,
      "Ġhockey": 3225,
      "Ġatl": 3226,
      "porary": 3227,
      "Ġult": 3228,
      "Ġice": 3229,
      "left": 3230,
      "Ġfly": 3231,
      "Ġreplaced": 3232,
      "uit": 3233,
      "Ġ1986": 3234,
      "uments": 3235,
      ".)": 3236,
      "ko": 3237,
      "Ġspecific": 3238,
      "Ġcer": 3239,
      "Ġcomplet": 3240,
      "Ġspir": 3241,
      "Ġwel": 3242,
      "Ġnative": 3243,
      "Ġiv": 3244,
      "Ġoverall": 3245,
      "Ġgal": 3246,
      "Ġtraditional": 3247,
      "Ġinterview": 3248,
      "Ġ1984": 3249,
      "Ġdecision": 3250,
      ".âĢĿ": 3251,
      "Ġinte": 3252,
      "Ġlocation": 3253,
      "uth": 3254,
      "Ġempire": 3255,
      "Ġvocals": 3256,
      "Ġscored": 3257,
      "Ġweb": 3258,
      "Ġmissing": 3259,
      "ffer": 3260,
      "Ġcases": 3261,
      "Ġchem": 3262,
      "ees": 3263,
      "Ġirish": 3264,
      "Ġhus": 3265,
      "Ġselected": 3266,
      "Ġdark": 3267,
      "Ġreve": 3268,
      "Ġyouth": 3269,
      "Ġthought": 3270,
      "Ġ1950": 3271,
      "Ġexpat": 3272,
      "Ġoccup": 3273,
      "Ġpreviously": 3274,
      "ylvania": 3275,
      "Ġrequire": 3276,
      "Ġsomething": 3277,
      "don": 3278,
      "Ġhonor": 3279,
      "Ġbab": 3280,
      "\"|": 3281,
      "Ġfrequ": 3282,
      "Ġstad": 3283,
      "Ġfc": 3284,
      "Ġsilver": 3285,
      "Ġspring": 3286,
      "Ġrequired": 3287,
      "ole": 3288,
      "Ġangeles": 3289,
      "Ġaltern": 3290,
      "Ġstructure": 3291,
      "Ġbon": 3292,
      "ĠĠĠĠĠĠĠĠ": 3293,
      "Ġda": 3294,
      "Ġpractice": 3295,
      "Ġreally": 3296,
      "known": 3297,
      "Ġapproxim": 3298,
      "Ġtowards": 3299,
      "Ġdecided": 3300,
      "Ġrugby": 3301,
      "Ġpremier": 3302,
      "Ġadministr": 3303,
      "Ġmartin": 3304,
      "Ġmultiple": 3305,
      "Ġdrum": 3306,
      "Ġsched": 3307,
      "Ġmob": 3308,
      "Ġarticle": 3309,
      "Ġdead": 3310,
      "antic": 3311,
      "Ġchannel": 3312,
      "reme": 3313,
      "Ġ1985": 3314,
      "Ġremov": 3315,
      "Ġactivities": 3316,
      "Ġexecutive": 3317,
      "Ġmakes": 3318,
      "Ġplays": 3319,
      "Ġ183": 3320,
      "iger": 3321,
      "ipl": 3322,
      "ension": 3323,
      "Ġrelated": 3324,
      "ength": 3325,
      "Ġvisit": 3326,
      "Ġissue": 3327,
      "Ġplaced": 3328,
      "Ġquarter": 3329,
      "see": 3330,
      "Ġhours": 3331,
      "Ġpotential": 3332,
      "Ġstay": 3333,
      "Ġengineering": 3334,
      "Ġdone": 3335,
      "Ġcarolina": 3336,
      "Ġlay": 3337,
      "ero": 3338,
      "Ġequip": 3339,
      "Ġdomin": 3340,
      "Ġdyn": 3341,
      "Ġsecretary": 3342,
      "Ġmove": 3343,
      "Ġmess": 3344,
      "like": 3345,
      "Ġexcept": 3346,
      "iano": 3347,
      "Ġfarm": 3348,
      "Ġcultural": 3349,
      "Ġseasons": 3350,
      "ims": 3351,
      "Ġprop": 3352,
      "Ġast": 3353,
      "Ġid": 3354,
      "Ġreached": 3355,
      "Ġcolumb": 3356,
      "Ġproducer": 3357,
      "Ġrunning": 3358,
      "Ġdemocratic": 3359,
      "Ġwales": 3360,
      "Ġshot": 3361,
      "aled": 3362,
      "Ġhur": 3363,
      "ques": 3364,
      "Ġwinter": 3365,
      "fefe": 3366,
      "rial": 3367,
      "vin": 3368,
      "Ġos": 3369,
      "oring": 3370,
      "Ġsometimes": 3371,
      "Ġimpact": 3372,
      "ests": 3373,
      "Ġword": 3374,
      "fa": 3375,
      "Ġwhether": 3376,
      "Ġros": 3377,
      "Ġdiscuss": 3378,
      "Ġwinning": 3379,
      "Ġislands": 3380,
      "Ġteac": 3381,
      "spap": 3382,
      "Ġok": 3383,
      "Ġcelebr": 3384,
      "Ġpenns": 3385,
      "lor": 3386,
      "Ġjoseph": 3387,
      "Ġdrama": 3388,
      ");": 3389,
      "Ġgeorg": 3390,
      "Ġbring": 3391,
      "Ġinstall": 3392,
      "Ġquality": 3393,
      "arily": 3394,
      "Ġresour": 3395,
      "ua": 3396,
      "Ġchanges": 3397,
      "Ġ(\"": 3398,
      "hire": 3399,
      "Ġbrought": 3400,
      "Ġtalk": 3401,
      "Ġkind": 3402,
      "Ġbass": 3403,
      "Ġbenef": 3404,
      "pected": 3405,
      "Ġwhose": 3406,
      "Ġsource": 3407,
      "Ġnewspap": 3408,
      "itch": 3409,
      "Ġtrain": 3410,
      "Ġglobal": 3411,
      "Ġannual": 3412,
      "Ġsettle": 3413,
      "Ġlabor": 3414,
      "Ġpennsylvania": 3415,
      "Ġprincip": 3416,
      "Ġful": 3417,
      "Ġoperation": 3418,
      "Ġblock": 3419,
      "Ġ1983": 3420,
      "abit": 3421,
      "can": 3422,
      "Ġba": 3423,
      "'re": 3424,
      "Ġnature": 3425,
      "Ġoppos": 3426,
      "Ġguard": 3427,
      "Ġhousehold": 3428,
      "Ġta": 3429,
      "Ġlic": 3430,
      "Ġterms": 3431,
      "Ġmunicipality": 3432,
      "Ġelectric": 3433,
      "shire": 3434,
      "Ġwide": 3435,
      "Ġrural": 3436,
      "net": 3437,
      "Ġfriends": 3438,
      "pa": 3439,
      "Ġhaw": 3440,
      "Ġitself": 3441,
      "oid": 3442,
      "Ġstock": 3443,
      "iana": 3444,
      "Ġsquare": 3445,
      "Ġassociated": 3446,
      "fort": 3447,
      "Ġstone": 3448,
      "Ġpersonnel": 3449,
      "Ġ1982": 3450,
      "Ġnames": 3451,
      "Ġgreek": 3452,
      "Ġelections": 3453,
      "selves": 3454,
      "Ġtable": 3455,
      "Ġqueen": 3456,
      "Ġallowed": 3457,
      "Ġconcept": 3458,
      "isions": 3459,
      "Ġprograms": 3460,
      "Ġenough": 3461,
      "Ġburn": 3462,
      "Ġcaptain": 3463,
      "Ġpack": 3464,
      "Ġdiffic": 3465,
      "wan": 3466,
      "Ġautom": 3467,
      "Ġmicro": 3468,
      "Ġeditor": 3469,
      "Ġspeed": 3470,
      "Ġgh": 3471,
      "Ġjer": 3472,
      "Ġprogress": 3473,
      "duction": 3474,
      "Ġmir": 3475,
      "yer": 3476,
      "Ġjustice": 3477,
      "Ġsav": 3478,
      "Ġcontent": 3479,
      "90": 3480,
      "Ġtownship": 3481,
      "Ġamount": 3482,
      "Ġchanged": 3483,
      "ker": 3484,
      "Ġjim": 3485,
      "down": 3486,
      "Ġded": 3487,
      "Ġdeep": 3488,
      "Ġpick": 3489,
      "Ġcollabor": 3490,
      "rad": 3491,
      "Ġsoftware": 3492,
      "Ġcontact": 3493,
      "Ġdestroy": 3494,
      "Ġprize": 3495,
      "Ġevidence": 3496,
      "vert": 3497,
      "bon": 3498,
      "Ġships": 3499,
      "Ġrevolution": 3500,
      "Ġcarl": 3501,
      "heast": 3502,
      "mond": 3503,
      "lam": 3504,
      "roll": 3505,
      "Ġruns": 3506,
      "ties": 3507,
      "Ġ1979": 3508,
      "70": 3509,
      "oo": 3510,
      "Ġroll": 3511,
      "Ġclosed": 3512,
      "portun": 3513,
      "Ġattended": 3514,
      "Ġles": 3515,
      "Ġdog": 3516,
      "anda": 3517,
      "Ġphilos": 3518,
      "Ġaddress": 3519,
      "Ġcities": 3520,
      "Ġ1972": 3521,
      "Ġpeace": 3522,
      "Ġprime": 3523,
      "ills": 3524,
      "Ġborder": 3525,
      "Ġcomputer": 3526,
      "Ġsubst": 3527,
      "ledge": 3528,
      "azz": 3529,
      "Ġhighest": 3530,
      "Ġopportun": 3531,
      "Ġmovie": 3532,
      "ati": 3533,
      "Ġlee": 3534,
      "Ġreligious": 3535,
      "ux": 3536,
      "Ġreason": 3537,
      "Ġblood": 3538,
      "Ġimmedi": 3539,
      "izing": 3540,
      "zz": 3541,
      "Ġram": 3542,
      "Ġlines": 3543,
      "bridge": 3544,
      "Ġpoliticians": 3545,
      "enue": 3546,
      "ato": 3547,
      "ansas": 3548,
      "Ġdefeated": 3549,
      "Ġarab": 3550,
      "Ġcomes": 3551,
      "Ġcompl": 3552,
      "Ġstadium": 3553,
      "Ġasian": 3554,
      "ences": 3555,
      "Ġheavy": 3556,
      "Ġcitiz": 3557,
      "Ġscore": 3558,
      "Ġgenerally": 3559,
      "Ġ!": 3560,
      "ette": 3561,
      "owers": 3562,
      "Ġpak": 3563,
      "Ġ1981": 3564,
      "Ġexpatriate": 3565,
      "Ġapproximately": 3566,
      "Ġinitially": 3567,
      "Ġ1976": 3568,
      "Ġmatches": 3569,
      "Ġpercent": 3570,
      "Ġdise": 3571,
      "lit": 3572,
      "Ġanth": 3573,
      "Ġregiment": 3574,
      "war": 3575,
      "Ġtakes": 3576,
      "Ġbeg": 3577,
      "Ġdutch": 3578,
      "Ġspain": 3579,
      "Ġyet": 3580,
      "ken": 3581,
      "Ġcode": 3582,
      "Ġiran": 3583,
      "Ġund": 3584,
      "Ġopening": 3585,
      "Ġuses": 3586,
      "aly": 3587,
      "gar": 3588,
      "Ġmurder": 3589,
      "Ġminutes": 3590,
      "riage": 3591,
      "Ġprovides": 3592,
      "Ġdoctor": 3593,
      "Ġpred": 3594,
      "Ġsett": 3595,
      "Ġtarget": 3596,
      "Ġukra": 3597,
      "Ġwee": 3598,
      "Ġhouses": 3599,
      "Ġneeds": 3600,
      "Ġgenus": 3601,
      "oe": 3602,
      "house": 3603,
      "Ġincrease": 3604,
      "bers": 3605,
      "\")": 3606,
      "asion": 3607,
      "Ġprince": 3608,
      "onse": 3609,
      "Ġbib": 3610,
      "anded": 3611,
      "with": 3612,
      "Ġscottish": 3613,
      "Ġmu": 3614,
      "Ġtheory": 3615,
      "inn": 3616,
      "Ġsurround": 3617,
      "Ġlaunched": 3618,
      "Ġprotect": 3619,
      "anned": 3620,
      "Ġfaculty": 3621,
      "Ġconcern": 3622,
      "Ġfra": 3623,
      "Ġearlier": 3624,
      "Ġgas": 3625,
      "Ġic": 3626,
      "Ġmeeting": 3627,
      "Ð¸": 3628,
      "Ġdar": 3629,
      "Ġstarting": 3630,
      "oura": 3631,
      "Ġcontem": 3632,
      "Ġnation": 3633,
      "Ġluc": 3634,
      "Ġspent": 3635,
      "Ġ1978": 3636,
      "Ġended": 3637,
      "Ġbeaut": 3638,
      "Ġentertain": 3639,
      "Ġbron": 3640,
      "Ġjul": 3641,
      "iga": 3642,
      "Ġvalue": 3643,
      "Ġinsp": 3644,
      "Ġhop": 3645,
      "Ġadop": 3646,
      "ersey": 3647,
      "put": 3648,
      "Ġvariety": 3649,
      "change": 3650,
      "Ġrepresented": 3651,
      "ingu": 3652,
      "Ġpaper": 3653,
      "Ġmunicipal": 3654,
      "Ġjob": 3655,
      "Ġbell": 3656,
      "ils": 3657,
      "Ġ1968": 3658,
      "Ġ1974": 3659,
      "Ġbomb": 3660,
      "Ġmah": 3661,
      "ĠâĢĺ": 3662,
      "iance": 3663,
      "Ġshare": 3664,
      "bre": 3665,
      "Ġpath": 3666,
      "Ġorganizations": 3667,
      "Ġextra": 3668,
      "Ġdail": 3669,
      "Ġagric": 3670,
      "Ġhung": 3671,
      "anc": 3672,
      "Ġbiography": 3673,
      "Ġdance": 3674,
      "Ġkr": 3675,
      "Ġgallery": 3676,
      "Ġinstr": 3677,
      "ele": 3678,
      "Ġtun": 3679,
      "Ġvictory": 3680,
      "'m": 3681,
      "Ġbishop": 3682,
      "Ġjewish": 3683,
      "rem": 3684,
      "Ġarran": 3685,
      "Ġlonger": 3686,
      "Ġmom": 3687,
      "Ġbrig": 3688,
      "Ġsuffer": 3689,
      "Ġnumerous": 3690,
      "ought": 3691,
      "Ġfinally": 3692,
      "Ġchampion": 3693,
      "Ġmechan": 3694,
      "Ġobt": 3695,
      "Ġtermin": 3696,
      "Ġrang": 3697,
      "stra": 3698,
      "Ð°": 3699,
      "Ġnations": 3700,
      "Ġowned": 3701,
      "Ġ1975": 3702,
      "Ġincreased": 3703,
      "iles": 3704,
      "Ġcommunities": 3705,
      "Ġindividuals": 3706,
      "ysis": 3707,
      "Ġshoot": 3708,
      "Ġactually": 3709,
      "Ġcateg": 3710,
      "Ġassistant": 3711,
      "gers": 3712,
      "kins": 3713,
      "Ġcomedy": 3714,
      "Ġdraw": 3715,
      "35": 3716,
      "Ġwhom": 3717,
      "awa": 3718,
      "Ġagricult": 3719,
      "Ġwhole": 3720,
      "Ġnine": 3721,
      "Ġdun": 3722,
      "Ġcause": 3723,
      "Ġedward": 3724,
      "Ġstories": 3725,
      "Ġ1977": 3726,
      "Ġvac": 3727,
      "Ġrate": 3728,
      "anced": 3729,
      "Ġmotor": 3730,
      "yan": 3731,
      "Ġdrop": 3732,
      "sa": 3733,
      "Ġmichigan": 3734,
      "Ġlack": 3735,
      "Ġpartners": 3736,
      "Ġrecording": 3737,
      "Ġrecent": 3738,
      "Ġjersey": 3739,
      "Ġcontest": 3740,
      "Ġcastle": 3741,
      "Ġcontains": 3742,
      "Ġohio": 3743,
      "Ġappearance": 3744,
      "Ġnecess": 3745,
      "Ġusa": 3746,
      "Ġjunior": 3747,
      "Ġmedic": 3748,
      "dy": 3749,
      "Ġsearch": 3750,
      "Ġexc": 3751,
      "oms": 3752,
      "Ġcycl": 3753,
      "more": 3754,
      "ding": 3755,
      "Ġ1973": 3756,
      "Ġthemselves": 3757,
      "Ġhighway": 3758,
      "Ġvote": 3759,
      "Ġlives": 3760,
      "book": 3761,
      "och": 3762,
      "inct": 3763,
      "aught": 3764,
      "Ġ1945": 3765,
      "era": 3766,
      "Ġconditions": 3767,
      "Ġ1940": 3768,
      "Ġmajority": 3769,
      "Ġ60": 3770,
      "Ġmention": 3771,
      "inet": 3772,
      "Ġdrug": 3773,
      "rast": 3774,
      "enty": 3775,
      "ias": 3776,
      "Ġindic": 3777,
      "met": 3778,
      "Ġprevent": 3779,
      "Ġ1971": 3780,
      "Ġweeks": 3781,
      "Ġbeat": 3782,
      "Ġreform": 3783,
      "mark": 3784,
      "Ġwrest": 3785,
      "Ġlength": 3786,
      "Ġaz": 3787,
      "Ġcamer": 3788,
      "cape": 3789,
      "Ġhusband": 3790,
      "Ġproblems": 3791,
      "Ġclin": 3792,
      "Ġstatus": 3793,
      "Ġsister": 3794,
      "emic": 3795,
      "Ġofficers": 3796,
      "Ġfootballer": 3797,
      "Ġcd": 3798,
      "enge": 3799,
      "75": 3800,
      "Ġancient": 3801,
      "Ġbecoming": 3802,
      "Ġlikely": 3803,
      "Ġmind": 3804,
      "Ġstore": 3805,
      "Ġsure": 3806,
      "Ġvoice": 3807,
      "aka": 3808,
      "itation": 3809,
      "Ġresponse": 3810,
      "iders": 3811,
      "Ġparents": 3812,
      "Ġwing": 3813,
      "//": 3814,
      "45": 3815,
      "ening": 3816,
      "Ġdemon": 3817,
      "Ġlived": 3818,
      "Ġaccom": 3819,
      "Ġnoted": 3820,
      "Ġstars": 3821,
      "ros": 3822,
      "Ġintegr": 3823,
      "Ġdaily": 3824,
      "Ġ1969": 3825,
      "Ġdouble": 3826,
      "Ġseat": 3827,
      "Ġolder": 3828,
      "pose": 3829,
      "Ġportug": 3830,
      "ube": 3831,
      "arm": 3832,
      "Ġell": 3833,
      "Ġfamous": 3834,
      "inois": 3835,
      "Ġlif": 3836,
      "Ġod": 3837,
      "Ġoffers": 3838,
      "Ġincome": 3839,
      "Ġtrue": 3840,
      "Ġcorps": 3841,
      "Ġcaused": 3842,
      "language": 3843,
      "Ġproblem": 3844,
      "rey": 3845,
      "Ġkent": 3846,
      "Ġliterature": 3847,
      "etts": 3848,
      "Ġcry": 3849,
      "enced": 3850,
      "Ġquestion": 3851,
      "Ġinside": 3852,
      "joy": 3853,
      "olit": 3854,
      "Ġtreatment": 3855,
      "Ð¾": 3856,
      "Ġspirit": 3857,
      "Ġcritical": 3858,
      "Ġthr": 3859,
      "vi": 3860,
      "Ġrat": 3861,
      "Ġpacific": 3862,
      "Ġphysical": 3863,
      "Ġbound": 3864,
      "Ġcomment": 3865,
      "Ġhotel": 3866,
      "Ġupper": 3867,
      "mission": 3868,
      "ls": 3869,
      "Ġbritain": 3870,
      "Ġwords": 3871,
      "mitted": 3872,
      "Ġjes": 3873,
      "Ġvillages": 3874,
      "rison": 3875,
      "ali": 3876,
      "load": 3877,
      "bury": 3878,
      "Ġclubs": 3879,
      "achus": 3880,
      "://": 3881,
      "ira": 3882,
      "erved": 3883,
      "Ġphilipp": 3884,
      "Ġshop": 3885,
      "wide": 3886,
      "Ġactors": 3887,
      "Ġ1930": 3888,
      "Ġasia": 3889,
      "Ġ1967": 3890,
      "Ġconsum": 3891,
      "Ġworkers": 3892,
      "Ġbost": 3893,
      "spe": 3894,
      "Ġtemple": 3895,
      "Ġarchitecture": 3896,
      "ugg": 3897,
      "Ġstan": 3898,
      "Ġsaying": 3899,
      "Ġash": 3900,
      "Ġstructures": 3901,
      "Ġpoland": 3902,
      "Ġillinois": 3903,
      "chen": 3904,
      "Ġ1964": 3905,
      "ÅĤ": 3906,
      "Ġgrowth": 3907,
      "Ġak": 3908,
      "Ġlands": 3909,
      "Ġargent": 3910,
      "Ġadj": 3911,
      "ises": 3912,
      "Ġelectron": 3913,
      "Ġpu": 3914,
      "cont": 3915,
      "isation": 3916,
      "Ġpolish": 3917,
      "Ġlov": 3918,
      "Ġwinner": 3919,
      "Ġped": 3920,
      "Ġconfl": 3921,
      "Ġmayor": 3922,
      "Ġscotland": 3923,
      "Ġfast": 3924,
      "99": 3925,
      "Ġcollect": 3926,
      "mas": 3927,
      "chester": 3928,
      "Ġbeach": 3929,
      "Ġtold": 3930,
      "Ġlaws": 3931,
      "Ġsportspeople": 3932,
      "eral": 3933,
      "lement": 3934,
      "Ġtowns": 3935,
      "ila": 3936,
      "Ġshar": 3937,
      "Ġsurvey": 3938,
      "ji": 3939,
      "Ġparticularly": 3940,
      "Ġgeorgia": 3941,
      "Ġtemper": 3942,
      "ounder": 3943,
      "rief": 3944,
      "Ġiii": 3945,
      "Ġacademic": 3946,
      "osh": 3947,
      "Ġbob": 3948,
      "tv": 3949,
      "Ġwatch": 3950,
      "Ġleave": 3951,
      "Ġvice": 3952,
      "Ġarrest": 3953,
      "gs": 3954,
      "Ġcheck": 3955,
      "iant": 3956,
      "Ġfit": 3957,
      "Ġmedalists": 3958,
      "Ġadult": 3959,
      "mann": 3960,
      "Ġministry": 3961,
      "Ġparish": 3962,
      "Ġdifficult": 3963,
      "Ġsafety": 3964,
      "inary": 3965,
      "Ġmand": 3966,
      "Ġbang": 3967,
      "sw": 3968,
      "Ġidea": 3969,
      "Ġcert": 3970,
      "Ġprojects": 3971,
      "achusetts": 3972,
      "Ġwinners": 3973,
      "Ġdur": 3974,
      "ador": 3975,
      "light": 3976,
      "Ġmeaning": 3977,
      "burgh": 3978,
      "Ġremains": 3979,
      "Ġplans": 3980,
      "car": 3981,
      "aya": 3982,
      "33": 3983,
      "Ġjac": 3984,
      "Ġentered": 3985,
      "Ġtypes": 3986,
      "Ġchairman": 3987,
      "Ġsequ": 3988,
      "Ġflight": 3989,
      "Ġpolitics": 3990,
      "ables": 3991,
      "áĦ": 3992,
      "áħ": 3993,
      "Ġbit": 3994,
      "Ġmassachusetts": 3995,
      "Ġboston": 3996,
      "Ġinfant": 3997,
      "sch": 3998,
      "Ġoce": 3999,
      "Ġcommander": 4000,
      "Ġdeput": 4001,
      "Ġconfir": 4002,
      "Ġlooking": 4003,
      "Ġorche": 4004,
      "Ġfellow": 4005,
      "Ġrules": 4006,
      "Ġnote": 4007,
      "Ġsurface": 4008,
      "Ġnick": 4009,
      "Ġtherefore": 4010,
      "Ġretired": 4011,
      "action": 4012,
      "Ġgreater": 4013,
      "rich": 4014,
      "Ġ180": 4015,
      "Ġsubsequently": 4016,
      "Ġpassed": 4017,
      "ulations": 4018,
      "uten": 4019,
      "Ġ1965": 4020,
      "rupt": 4021,
      "Ġsens": 4022,
      "Ġserving": 4023,
      "Ġpoor": 4024,
      "Ġcolumbia": 4025,
      "Ġrecomm": 4026,
      "Ġjones": 4027,
      "gypt": 4028,
      "isters": 4029,
      "Ġshown": 4030,
      "Ġindustrial": 4031,
      "aming": 4032,
      "part": 4033,
      "Ġsays": 4034,
      "Ġsales": 4035,
      "Ġinternet": 4036,
      "Ġbranch": 4037,
      "Ġmatt": 4038,
      "Ġstudied": 4039,
      "ifying": 4040,
      "Ġsev": 4041,
      "bro": 4042,
      "Ġcontinue": 4043,
      "Ġcoming": 4044,
      "Ġremain": 4045,
      "dra": 4046,
      "astic": 4047,
      "Ġ1966": 4048,
      "Ġcreek": 4049,
      "ession": 4050,
      "Ġcart": 4051,
      "Ġforward": 4052,
      "onia": 4053,
      "Ġcin": 4054,
      "jan": 4055,
      "Ġgirls": 4056,
      "span": 4057,
      "Ġâ": 4058,
      "Ġprice": 4059,
      "Ġmap": 4060,
      "Ġurban": 4061,
      "Ġfish": 4062,
      "ela": 4063,
      "Ġmemorial": 4064,
      "Ġbed": 4065,
      "Ġera": 4066,
      "Ġna": 4067,
      "ands": 4068,
      "Ġknowledge": 4069,
      "Ġlarger": 4070,
      "mm": 4071,
      "Ġray": 4072,
      "Ġjean": 4073,
      "Ġtouch": 4074,
      "Ġjohnson": 4075,
      "Ġsac": 4076,
      "Ġwanted": 4077,
      "ucle": 4078,
      "Ġforced": 4079,
      "Ġclean": 4080,
      "Ġwilliams": 4081,
      "Ġasked": 4082,
      "Ġmaxim": 4083,
      "zy": 4084,
      "Ġbol": 4085,
      "Ġbehav": 4086,
      "class": 4087,
      "190": 4088,
      "Ġplot": 4089,
      "vement": 4090,
      "Ġbid": 4091,
      "Ġforms": 4092,
      "Ġcharl": 4093,
      "Ġsail": 4094,
      "Ġcrime": 4095,
      "Ġ1920": 4096,
      "ellig": 4097,
      "Ġconne": 4098,
      "Ġcontinu": 4099,
      "Ġ35": 4100,
      "omy": 4101,
      "Ġcook": 4102,
      "Ġmusicians": 4103,
      "Ġenjoy": 4104,
      "text": 4105,
      "ructed": 4106,
      "Ġsupported": 4107,
      "illa": 4108,
      "Ġmis": 4109,
      "nam": 4110,
      "Ġmetal": 4111,
      "Ġpresented": 4112,
      "ograp": 4113,
      "Ġmostly": 4114,
      "Ġlevels": 4115,
      "Ġtam": 4116,
      "Ġelement": 4117,
      "Ġmarriage": 4118,
      "akers": 4119,
      "Ġarticles": 4120,
      "Ġfrancisco": 4121,
      "aging": 4122,
      "Ġdefense": 4123,
      "rid": 4124,
      "Ġkong": 4125,
      "Ġleaving": 4126,
      "Ġsites": 4127,
      "Ġsenate": 4128,
      "Ġthing": 4129,
      "Ġbey": 4130,
      "Ġiron": 4131,
      "Ġfifth": 4132,
      "Ġfres": 4133,
      "Ġraised": 4134,
      "Ġmcc": 4135,
      "bi": 4136,
      "Ġoperated": 4137,
      "Ġfreed": 4138,
      "Ġlem": 4139,
      "dney": 4140,
      "Ġdrive": 4141,
      "sen": 4142,
      "Ġfavor": 4143,
      "Ġtracks": 4144,
      "ova": 4145,
      "Ġanton": 4146,
      "state": 4147,
      "Ġdoub": 4148,
      "Ġbott": 4149,
      "Ġdiss": 4150,
      "cel": 4151,
      "where": 4152,
      "Ġparties": 4153,
      "unt": 4154,
      "Ġresponsible": 4155,
      "Ġhong": 4156,
      "Ġprobably": 4157,
      "Ġestate": 4158,
      "adel": 4159,
      "Ġsab": 4160,
      "Ġlearning": 4161,
      "ression": 4162,
      "inian": 4163,
      "Ġdistribution": 4164,
      "reng": 4165,
      "Ġmathem": 4166,
      "Ġken": 4167,
      "Ġislam": 4168,
      "rol": 4169,
      "Ġbern": 4170,
      "Ġegypt": 4171,
      "Ġanalysis": 4172,
      "Ġhelped": 4173,
      "Ġunique": 4174,
      "Ġthreat": 4175,
      "Ġprotection": 4176,
      "Ġmit": 4177,
      "Ġeffects": 4178,
      "Ġcontemporary": 4179,
      "Ġweight": 4180,
      "background": 4181,
      "Ġoffered": 4182,
      "Ġimplement": 4183,
      "Ġscul": 4184,
      "hl": 4185,
      "Ġdirectly": 4186,
      "Ġrain": 4187,
      "Ġ1944": 4188,
      "Ġcarry": 4189,
      "isher": 4190,
      "bar": 4191,
      "Ġresources": 4192,
      "erse": 4193,
      "Ġjudge": 4194,
      "Ġmas": 4195,
      "Ġcru": 4196,
      "uan": 4197,
      "Ġpositive": 4198,
      "Ġvon": 4199,
      "Ġrot": 4200,
      "Ġjr": 4201,
      "Ġbelong": 4202,
      "Ġvolume": 4203,
      "Ġdoing": 4204,
      "Ġdisplay": 4205,
      "Ġapart": 4206,
      "Ġalbert": 4207,
      "ustr": 4208,
      "Ġappears": 4209,
      "Ġentertainment": 4210,
      "Ġauthority": 4211,
      "track": 4212,
      "Ġdeliver": 4213,
      "Ġsle": 4214,
      "Ġterritory": 4215,
      "Ġari": 4216,
      "Ġracing": 4217,
      "Ġiniti": 4218,
      "Ġadvent": 4219,
      "Ġtan": 4220,
      "Ġinsur": 4221,
      "Ġnumbers": 4222,
      "encies": 4223,
      "Ġsomeone": 4224,
      "orporated": 4225,
      "gal": 4226,
      "Ġserve": 4227,
      "Ġepisodes": 4228,
      "Ġapproach": 4229,
      "Ġconcert": 4230,
      "Ġbelieve": 4231,
      "Ġequipment": 4232,
      "Ġelements": 4233,
      "ously": 4234,
      "undred": 4235,
      "stein": 4236,
      "95": 4237,
      "greg": 4238,
      "Ġmarine": 4239,
      "Ġoxford": 4240,
      "Ġesc": 4241,
      "Ġrule": 4242,
      "Ġrose": 4243,
      "Ġbrief": 4244,
      "Ġhero": 4245,
      "Ġcooper": 4246,
      "Ġswe": 4247,
      "Ġpromin": 4248,
      "atively": 4249,
      "Ġlatin": 4250,
      "36": 4251,
      "Ġlabel": 4252,
      "ora": 4253,
      "Ġbac": 4254,
      "Ġincreasing": 4255,
      "illed": 4256,
      "Ġgetting": 4257,
      "Ġletter": 4258,
      "Ġmorn": 4259,
      "mad": 4260,
      "Ġability": 4261,
      "Ġrow": 4262,
      "phy": 4263,
      "Ġinfluence": 4264,
      "Ġplants": 4265,
      "Ġswim": 4266,
      "Ġjoe": 4267,
      "Ġclaimed": 4268,
      "Ġgolden": 4269,
      "Ġmachine": 4270,
      "yes": 4271,
      "Ġ1963": 4272,
      "38": 4273,
      "imb": 4274,
      "Ġ1962": 4275,
      "Ġalexander": 4276,
      "Ġestim": 4277,
      "Ġlatter": 4278,
      "Ġcapac": 4279,
      "Ġintellig": 4280,
      "itude": 4281,
      "Ġengineer": 4282,
      "Ġneeded": 4283,
      "Ġseparate": 4284,
      "Ġquickly": 4285,
      "Ġrisk": 4286,
      "Ġjacks": 4287,
      "Ġfailed": 4288,
      "Ġnearly": 4289,
      "Ġcompeted": 4290,
      "hens": 4291,
      "Ġsupreme": 4292,
      "Ġ45": 4293,
      "Ġearned": 4294,
      "Ġcampus": 4295,
      "gon": 4296,
      "aces": 4297,
      "Ġrecover": 4298,
      "Ġconstant": 4299,
      "Ġsculpt": 4300,
      "tery": 4301,
      "ellow": 4302,
      "48": 4303,
      "sk": 4304,
      "Ġhundred": 4305,
      "hu": 4306,
      "Ġsund": 4307,
      "Ġopera": 4308,
      "Ġcoal": 4309,
      "iy": 4310,
      "47": 4311,
      "mir": 4312,
      "Ġlangu": 4313,
      "Ġwr": 4314,
      "Ġfirm": 4315,
      "Ġtechnical": 4316,
      "Ġcub": 4317,
      "Ġagency": 4318,
      "inal": 4319,
      "Ġproposed": 4320,
      "Ġbrothers": 4321,
      "uries": 4322,
      "Ġweap": 4323,
      "bu": 4324,
      "Ġappearances": 4325,
      "Ġstreng": 4326,
      "Ġprofile": 4327,
      "Ġneighbor": 4328,
      "Ġturned": 4329,
      "itors": 4330,
      "Ġhighly": 4331,
      "Ġagreement": 4332,
      "Ġga": 4333,
      "Ġgarden": 4334,
      "dis": 4335,
      "Ġjoint": 4336,
      "Ġsout": 4337,
      "Ġlas": 4338,
      "ci": 4339,
      "Ġfix": 4340,
      "arters": 4341,
      "Ġreplace": 4342,
      "Ġdescription": 4343,
      "Ġreferred": 4344,
      "Ġhtt": 4345,
      "ington": 4346,
      "Ġheadqu": 4347,
      "Ġowners": 4348,
      "Ġmoving": 4349,
      "Ġsciences": 4350,
      "Ġattention": 4351,
      "Ġlady": 4352,
      "Ġvictoria": 4353,
      "abeth": 4354,
      "Ġreach": 4355,
      ":#": 4356,
      "oul": 4357,
      "Ġsud": 4358,
      "Ġmut": 4359,
      "Ġflag": 4360,
      "Ġimper": 4361,
      "Ġnaval": 4362,
      "Ġdaniel": 4363,
      "Ġimage": 4364,
      "Ġhope": 4365,
      "Ġsolo": 4366,
      "Ġkenn": 4367,
      "Ġcorporation": 4368,
      "Ġscholars": 4369,
      "Ġbelieved": 4370,
      "Ġaffairs": 4371,
      "Ġrecip": 4372,
      "Ġjackson": 4373,
      "Ðµ": 4374,
      "Ġ1942": 4375,
      "Ġnucle": 4376,
      "Ġextended": 4377,
      "Ġcitizens": 4378,
      "Ġadvanced": 4379,
      "Ġmixed": 4380,
      "icks": 4381,
      "force": 4382,
      "Ġprotest": 4383,
      "ancy": 4384,
      "ima": 4385,
      "Ġberlin": 4386,
      "town": 4387,
      "Ġclimate": 4388,
      "Ġconstitu": 4389,
      "Ġremaining": 4390,
      "Ġsimple": 4391,
      "tered": 4392,
      "Ġtroops": 4393,
      "worth": 4394,
      "una": 4395,
      "Ġleadership": 4396,
      "Ġobserv": 4397,
      "Ġswedish": 4398,
      "Ġeliz": 4399,
      "Ġcancer": 4400,
      "Ġ1961": 4401,
      "65": 4402,
      "Ġresidents": 4403,
      "Ġcarried": 4404,
      "Ġcovered": 4405,
      "Ġwear": 4406,
      "Ġcrimin": 4407,
      "Ġpiano": 4408,
      "Ġsquadron": 4409,
      "Ġeasy": 4410,
      "Ġmaterials": 4411,
      "Ġmaria": 4412,
      "Ġpartner": 4413,
      "Ġbh": 4414,
      "Ġlanguages": 4415,
      "Ġherit": 4416,
      "Ġsoccer": 4417,
      "Ġdefin": 4418,
      "Ġfloor": 4419,
      "onto": 4420,
      "Ġproviding": 4421,
      "Ġcham": 4422,
      "Ġexchange": 4423,
      "ophy": 4424,
      "Ġovers": 4425,
      "Ġreception": 4426,
      "Ġbattal": 4427,
      "Ġjoin": 4428,
      "Ġdidn": 4429,
      "Ġsin": 4430,
      "Ġ1948": 4431,
      "37": 4432,
      "Ġwars": 4433,
      "Ġviet": 4434,
      "Ġcrew": 4435,
      "Ġactivity": 4436,
      "Ġprovin": 4437,
      "Ġtrial": 4438,
      "Ġgiving": 4439,
      "Ġcandidate": 4440,
      "Ġperfect": 4441,
      "Ġreserve": 4442,
      "Ġnewspaper": 4443,
      "Ġpoly": 4444,
      "88": 4445,
      "Ġdescent": 4446,
      "Ġbbc": 4447,
      "Ġbibli": 4448,
      "Ġacquired": 4449,
      ",âĢĿ": 4450,
      "Ġtower": 4451,
      "elled": 4452,
      "Ġimmediately": 4453,
      "Ġker": 4454,
      "Ġsimply": 4455,
      "iring": 4456,
      "Ġmiles": 4457,
      "ivity": 4458,
      "Ġeconomy": 4459,
      "Ġkil": 4460,
      "org": 4461,
      "Ġ1956": 4462,
      "Ġsteel": 4463,
      "Ġsecondary": 4464,
      "ech": 4465,
      "Ġjon": 4466,
      "Ã¸": 4467,
      "Ġ65": 4468,
      "water": 4469,
      "teen": 4470,
      "Ġsitu": 4471,
      "Ġhousing": 4472,
      "izes": 4473,
      "Ġdivers": 4474,
      "Ġtree": 4475,
      "Ġheritage": 4476,
      "ault": 4477,
      "Ġnovels": 4478,
      "Ġrivers": 4479,
      "Ġelev": 4480,
      "Ġcomposed": 4481,
      "Ġ1943": 4482,
      "Ġfiction": 4483,
      "Ġdisp": 4484,
      "resp": 4485,
      "ĠÂ£": 4486,
      "Ġspread": 4487,
      "Ġscientific": 4488,
      "Ġjazz": 4489,
      "Ġreviews": 4490,
      "Ġpp": 4491,
      "Ġrand": 4492,
      ";\"": 4493,
      "ucky": 4494,
      "Ġcharge": 4495,
      "ologist": 4496,
      "Ġscen": 4497,
      "Ġenvironmental": 4498,
      "Ġkir": 4499,
      "Ġsher": 4500,
      "Ġkorea": 4501,
      "Ġemper": 4502,
      "Ġminim": 4503,
      "Ġqueens": 4504,
      "Ġwit": 4505,
      "thur": 4506,
      "aling": 4507,
      "bra": 4508,
      "Ġallows": 4509,
      "ricts": 4510,
      "Ġfine": 4511,
      "cul": 4512,
      "Ġmountains": 4513,
      "Ġchalleng": 4514,
      "hy": 4515,
      "Ġwed": 4516,
      "zech": 4517,
      "ĠÐ": 4518,
      "Ġeducational": 4519,
      "Ġkit": 4520,
      "Ġtrail": 4521,
      "uff": 4522,
      "34": 4523,
      "Ġlieuten": 4524,
      "Ġrecon": 4525,
      "Ġnothing": 4526,
      "Ġdetermin": 4527,
      "Ġ+": 4528,
      "Ġetc": 4529,
      "Ġrequest": 4530,
      "Ġye": 4531,
      "Ġpromoted": 4532,
      "Ġpurs": 4533,
      "duce": 4534,
      "vo": 4535,
      "Ġcounter": 4536,
      "Ġfacilities": 4537,
      "Ġscene": 4538,
      "Ġ1958": 4539,
      "Ġtay": 4540,
      "Ġstrateg": 4541,
      "illy": 4542,
      "Ġsydney": 4543,
      "any": 4544,
      "Ġsoldiers": 4545,
      "Ġchoice": 4546,
      "Ġstatistics": 4547,
      "Ġmort": 4548,
      "Ġdirection": 4549,
      "Ġmedicine": 4550,
      "Ġalle": 4551,
      "Ġrecently": 4552,
      "Ġgene": 4553,
      "Ġdisease": 4554,
      "Ġstor": 4555,
      "Ġandre": 4556,
      "Ġresist": 4557,
      "Ġdoesn": 4558,
      "Ġjeff": 4559,
      "enger": 4560,
      "Ġkorean": 4561,
      "Ġreceive": 4562,
      "Ġmatter": 4563,
      "rical": 4564,
      "grad": 4565,
      "Ġfeaturing": 4566,
      "Ġmax": 4567,
      "Ġconvers": 4568,
      "Ġserious": 4569,
      "stone": 4570,
      "Ġbag": 4571,
      "Ġmodels": 4572,
      "icted": 4573,
      "Ġfigure": 4574,
      "Ġ1959": 4575,
      "Ġsusp": 4576,
      "Ġvirt": 4577,
      "Ġhorse": 4578,
      "Ġpaint": 4579,
      "Ġdamage": 4580,
      "sm": 4581,
      "Ġmorning": 4582,
      "Ġessential": 4583,
      "iter": 4584,
      "Ġnearby": 4585,
      "Ġturk": 4586,
      "Ġdedicated": 4587,
      "kh": 4588,
      "Ġmainly": 4589,
      "Ġocean": 4590,
      "Ġwindows": 4591,
      "oration": 4592,
      "Ġsucceed": 4593,
      "Ġlt": 4594,
      "Ġ80": 4595,
      "Ġinfantry": 4596,
      "Ġsymb": 4597,
      "rance": 4598,
      "Ġprint": 4599,
      "pet": 4600,
      "Ġconsists": 4601,
      "Ġsemi": 4602,
      "Ġmanaged": 4603,
      "Ġeld": 4604,
      "Ġ1941": 4605,
      "Ġcav": 4606,
      "Ġnic": 4607,
      "Ġcompil": 4608,
      "Ġ1946": 4609,
      "pon": 4610,
      "dro": 4611,
      "Ġko": 4612,
      "Ġcondition": 4613,
      "Ġcars": 4614,
      "Ġspr": 4615,
      "Ġconver": 4616,
      "Ġguide": 4617,
      "Ġbod": 4618,
      "Ġdipl": 4619,
      "ione": 4620,
      "Ġboys": 4621,
      "lim": 4622,
      "Ġsettlement": 4623,
      "Ġgraph": 4624,
      "Ġbeyond": 4625,
      "Ġtypically": 4626,
      "98": 4627,
      "do": 4628,
      "Ġfal": 4629,
      "Ġplanning": 4630,
      "Ġserb": 4631,
      "Ġencoura": 4632,
      "Ġott": 4633,
      "Ġcinem": 4634,
      "Ġmike": 4635,
      "rics": 4636,
      "Ġspot": 4637,
      "Ġthous": 4638,
      "wise": 4639,
      "Ġelse": 4640,
      "Ġbaron": 4641,
      "Ġgoes": 4642,
      "Ġapplication": 4643,
      "yr": 4644,
      "Ġproduce": 4645,
      "Ġdiscovered": 4646,
      "Ġresident": 4647,
      "Ġissued": 4648,
      "Ġ1957": 4649,
      "Ġways": 4650,
      "Ġring": 4651,
      "Ġprep": 4652,
      "Ġcatal": 4653,
      "Ġpopulated": 4654,
      "Ġcorre": 4655,
      "ogue": 4656,
      "Ġlieutenant": 4657,
      "Ġensure": 4658,
      "Ġhands": 4659,
      "Ġconsult": 4660,
      "Ġmarsh": 4661,
      "Ġcannot": 4662,
      "het": 4663,
      "Ġleon": 4664,
      "Ġeverything": 4665,
      "Ġrepe": 4666,
      "vard": 4667,
      "Ġbasis": 4668,
      "Ġdraft": 4669,
      "miss": 4670,
      "Ġcem": 4671,
      "Ġczech": 4672,
      "amm": 4673,
      "Ġsust": 4674,
      "Ġontar": 4675,
      "Ġpublications": 4676,
      "Ġattend": 4677,
      "Ġalongside": 4678,
      "kee": 4679,
      "Ġsupply": 4680,
      "97": 4681,
      "Ġdistricts": 4682,
      "Ġontario": 4683,
      "lav": 4684,
      "44": 4685,
      "Ġtransform": 4686,
      "Ġusers": 4687,
      "ibly": 4688,
      "Ġpressure": 4689,
      "works": 4690,
      "star": 4691,
      "Ġcapacity": 4692,
      "96": 4693,
      "akh": 4694,
      "iday": 4695,
      "real": 4696,
      "Ġ1952": 4697,
      "Ġsense": 4698,
      "Ġ1947": 4699,
      "Ġbecomes": 4700,
      "Ġefforts": 4701,
      "Ġliberal": 4702,
      "Ġmobile": 4703,
      "Ġny": 4704,
      "iat": 4705,
      "Ġdiam": 4706,
      "mus": 4707,
      "Ġ1939": 4708,
      "mont": 4709,
      "Ġchallenge": 4710,
      "Ġclassical": 4711,
      "Ġlies": 4712,
      "ighter": 4713,
      "!!": 4714,
      "Ġvent": 4715,
      "Ġira": 4716,
      "phia": 4717,
      "Ġoperating": 4718,
      "anth": 4719,
      "Ġformation": 4720,
      "Ġsom": 4721,
      "weight": 4722,
      "Ġobl": 4723,
      "ouri": 4724,
      "Ġlearn": 4725,
      "Ġdeputy": 4726,
      "Ġnether": 4727,
      "Ġgraduated": 4728,
      "Ġcrown": 4729,
      "Ġcharts": 4730,
      "Ġfox": 4731,
      "Ġupd": 4732,
      "aug": 4733,
      "Ġeffective": 4734,
      "nic": 4735,
      "Ġrestaur": 4736,
      "Ġdocumentary": 4737,
      "Ġgrade": 4738,
      "pre": 4739,
      "Ġcontrovers": 4740,
      "Ġduke": 4741,
      "Ġtel": 4742,
      "come": 4743,
      "Ġbasic": 4744,
      "writer": 4745,
      "Ġperman": 4746,
      "agon": 4747,
      "onsin": 4748,
      "Ġunknown": 4749,
      "85": 4750,
      "Ġsell": 4751,
      "Ġarrived": 4752,
      "Ġtoronto": 4753,
      "Ġformat": 4754,
      "Ġ1955": 4755,
      "now": 4756,
      "Ġbronze": 4757,
      "Ġemperor": 4758,
      "room": 4759,
      "Ġcontroll": 4760,
      "Ġrub": 4761,
      "Ġ70": 4762,
      "rane": 4763,
      "ulf": 4764,
      "Ġglass": 4765,
      "mill": 4766,
      "Ġyellow": 4767,
      "Ġpad": 4768,
      "nesota": 4769,
      "Ġrailroad": 4770,
      "isconsin": 4771,
      "inger": 4772,
      "Ġacting": 4773,
      "Ġjur": 4774,
      "Ġcompared": 4775,
      "Ġmoth": 4776,
      "Ġpublishing": 4777,
      "Ġremoved": 4778,
      "Ġavenue": 4779,
      "Ġaer": 4780,
      "ih": 4781,
      "Ġfleet": 4782,
      "oman": 4783,
      "Ġinh": 4784,
      "Ġelimin": 4785,
      "Ġadvis": 4786,
      "adelphia": 4787,
      "46": 4788,
      "Ġbrad": 4789,
      "Ġfant": 4790,
      "bec": 4791,
      "Ġkid": 4792,
      "Ġpakistan": 4793,
      "itable": 4794,
      "Ġteacher": 4795,
      "Ġpier": 4796,
      "Ġsexual": 4797,
      "under": 4798,
      "Ġsmaller": 4799,
      "Ġmexican": 4800,
      "Ġtrying": 4801,
      "Ġeg": 4802,
      "31": 4803,
      "Ġlew": 4804,
      "attle": 4805,
      "Ġka": 4806,
      "iced": 4807,
      "Ġchris": 4808,
      "Ġenem": 4809,
      "Ġhair": 4810,
      "Ġgeography": 4811,
      "Ġcreating": 4812,
      "Ġwisconsin": 4813,
      "Ġheat": 4814,
      "Ġtransferred": 4815,
      "Ġcouple": 4816,
      "Ġah": 4817,
      "Ġinstitutions": 4818,
      "Ġlabour": 4819,
      "Ġrome": 4820,
      "Ġtwenty": 4821,
      "Ġrevealed": 4822,
      "Ġseem": 4823,
      "Ġll": 4824,
      "Ġpaid": 4825,
      "Ġeffic": 4826,
      "Ġ90": 4827,
      "Ġminnesota": 4828,
      "Ġrare": 4829,
      "Ġworth": 4830,
      "Ġdor": 4831,
      "Ġbc": 4832,
      "Ġtai": 4833,
      "Ġanne": 4834,
      "Ġprin": 4835,
      "Ġsanta": 4836,
      "iful": 4837,
      "ensity": 4838,
      "Ġpattern": 4839,
      "Ġreports": 4840,
      "mo": 4841,
      "Ġnecessary": 4842,
      "Ġprec": 4843,
      "Ġ1954": 4844,
      "Ġconstructed": 4845,
      "Ġcombined": 4846,
      "Ġhay": 4847,
      "Ġuns": 4848,
      "Ġpurpose": 4849,
      "Ġinnov": 4850,
      "Ġts": 4851,
      "Ġprimarily": 4852,
      "aped": 4853,
      "Ġowner": 4854,
      "ered": 4855,
      "amin": 4856,
      "Ġkim": 4857,
      "umn": 4858,
      "bourne": 4859,
      "secut": 4860,
      "Ġbull": 4861,
      "Ġexperiment": 4862,
      "Ġraces": 4863,
      "Ġeye": 4864,
      "Ġfighting": 4865,
      "Ġleaves": 4866,
      "55": 4867,
      "Ġplanned": 4868,
      "Ġelizabeth": 4869,
      "ounds": 4870,
      "Ġseg": 4871,
      "Ġru": 4872,
      "Ġtraffic": 4873,
      "Ġskin": 4874,
      "Ġ*": 4875,
      "Ġslow": 4876,
      "Ġbuy": 4877,
      "Ġaffili": 4878,
      "igen": 4879,
      "Ġ1949": 4880,
      "lers": 4881,
      "Ġfreedom": 4882,
      "Ġ1953": 4883,
      "ordin": 4884,
      "Ġintended": 4885,
      "Ġconduct": 4886,
      "Ġphiladelphia": 4887,
      "ropical": 4888,
      "Ġgives": 4889,
      "Ġlisting": 4890,
      "itzer": 4891,
      "Ġadvert": 4892,
      "Ġspect": 4893,
      "Ġreserv": 4894,
      "Ġdial": 4895,
      "bit": 4896,
      "iber": 4897,
      "Ġorchestra": 4898,
      "Ġfab": 4899,
      "Ġcambridge": 4900,
      "Ġlinear": 4901,
      "Ġconducted": 4902,
      "Ġsurn": 4903,
      "ferences": 4904,
      "Ġsuppl": 4905,
      "des": 4906,
      "Ġnetherlands": 4907,
      "Ġeveryone": 4908,
      "set": 4909,
      "Ġgrowing": 4910,
      "Ġfresh": 4911,
      "32": 4912,
      "Ġchur": 4913,
      "agn": 4914,
      "Ġillustr": 4915,
      "owa": 4916,
      "Ġdetails": 4917,
      "Ġcompon": 4918,
      "Ġvs": 4919,
      "Ġprogramming": 4920,
      "Ġfat": 4921,
      "Ġsituation": 4922,
      "66": 4923,
      "Ġvehicle": 4924,
      "Ġfounder": 4925,
      "Ġ)": 4926,
      "Ġchron": 4927,
      "adesh": 4928,
      "iot": 4929,
      "Ġtitles": 4930,
      "Ġanything": 4931,
      "Ġattorn": 4932,
      "Ġofficially": 4933,
      "Ġstrugg": 4934,
      "Ġsafe": 4935,
      "Ġmetrop": 4936,
      "Ġframe": 4937,
      "Ġsplit": 4938,
      "Ġcreation": 4939,
      "oud": 4940,
      "'ve": 4941,
      "Ġfeed": 4942,
      "Ġclassic": 4943,
      "Ġapplied": 4944,
      "rep": 4945,
      "Ġot": 4946,
      "Ġalone": 4947,
      "kin": 4948,
      "Ġprominent": 4949,
      "ashion": 4950,
      "ributed": 4951,
      "39": 4952,
      "Ġ1951": 4953,
      "Ġgrew": 4954,
      "Ġpiece": 4955,
      "ocks": 4956,
      "Ġmarg": 4957,
      "Ġloan": 4958,
      "rier": 4959,
      "life": 4960,
      "bed": 4961,
      "respond": 4962,
      "Ġindiana": 4963,
      "Ġzone": 4964,
      "Ġcompletely": 4965,
      "Ġrenamed": 4966,
      "Ġori": 4967,
      "Ġvotes": 4968,
      "hr": 4969,
      "Ġwilson": 4970,
      "Ġbibliography": 4971,
      "Ġmeasure": 4972,
      "Ġclaims": 4973,
      "Ġparticipated": 4974,
      "Ġteaching": 4975,
      "Ġshortly": 4976,
      "Ġkel": 4977,
      "Ġfully": 4978,
      "77": 4979,
      "Ġclar": 4980,
      "estic": 4981,
      "Ġexpected": 4982,
      "ava": 4983,
      "Ġlaunch": 4984,
      "olitan": 4985,
      "Ġcant": 4986,
      "orter": 4987,
      "fc": 4988,
      "Ġvolun": 4989,
      "Ġpropos": 4990,
      "bel": 4991,
      "cript": 4992,
      "Ġil": 4993,
      "fully": 4994,
      "Ġmales": 4995,
      "place": 4996,
      "inson": 4997,
      "Ġpand": 4998,
      "à¤": 4999,
      "Ġward": 5000,
      "Ġanaly": 5001,
      "Ġattra": 5002,
      "Ġquestions": 5003,
      "Ġcerem": 5004,
      "sex": 5005,
      "Ġdro": 5006,
      "Ġfollows": 5007,
      "arent": 5008,
      "Ġnormal": 5009,
      "watch": 5010,
      "Ġpresence": 5011,
      "Ġbattalion": 5012,
      "Ġoak": 5013,
      "86": 5014,
      "aska": 5015,
      "Ġadvance": 5016,
      "Ġfelt": 5017,
      "Ġ32": 5018,
      "Ġdemonstr": 5019,
      "Ġdistance": 5020,
      "Ġmarketing": 5021,
      "Ñģ": 5022,
      "Ġron": 5023,
      "Ġuser": 5024,
      "char": 5025,
      "Ġretire": 5026,
      "ÑĢ": 5027,
      "Ġexcell": 5028,
      "Ġtennis": 5029,
      "Ġholy": 5030,
      "Ġcold": 5031,
      "Ġcorrespond": 5032,
      "Ġindones": 5033,
      "Ġlegislative": 5034,
      "Ġandrew": 5035,
      "Ġmethods": 5036,
      "Ġdry": 5037,
      "Ġordered": 5038,
      "wegian": 5039,
      "Ġintelligence": 5040,
      "inity": 5041,
      "Ġsteve": 5042,
      "ressed": 5043,
      "oty": 5044,
      "Ġhabit": 5045,
      "Ġcovid": 5046,
      "Ġ2022": 5047,
      "ev": 5048,
      "ographic": 5049,
      "Ġign": 5050,
      "asa": 5051,
      "eland": 5052,
      "Ġali": 5053,
      "living": 5054,
      "Ġadvoc": 5055,
      "Ġfolk": 5056,
      "Ġvin": 5057,
      "Ġdub": 5058,
      "Ġorganized": 5059,
      "Ġtaylor": 5060,
      "Ġinstrument": 5061,
      "Ġcrow": 5062,
      "Ġmentioned": 5063,
      "Ġaim": 5064,
      "Ġprincipal": 5065,
      "Ġexact": 5066,
      "standing": 5067,
      "Ġhan": 5068,
      "Ġchurches": 5069,
      "Ġaspect": 5070,
      "Ġalternative": 5071,
      "Ġcommonly": 5072,
      "urer": 5073,
      "uled": 5074,
      "Ġcustomers": 5075,
      "Ġ36": 5076,
      "Ġpainting": 5077,
      "Ġslov": 5078,
      "regon": 5079,
      "Ġarthur": 5080,
      "Ġsweden": 5081,
      "establ": 5082,
      "Ġhell": 5083,
      "Ġdang": 5084,
      "Ġcomposer": 5085,
      "Ġselect": 5086,
      "Ġheadquarters": 5087,
      "uz": 5088,
      "Ġdin": 5089,
      "Ġdistingu": 5090,
      "Ġcritics": 5091,
      "49": 5092,
      "Ġnaz": 5093,
      "pass": 5094,
      "Ġskills": 5095,
      "500": 5096,
      "list": 5097,
      "Ġcolorado": 5098,
      "uge": 5099,
      "Ġentry": 5100,
      "iques": 5101,
      "Ġpositions": 5102,
      "chers": 5103,
      "Ġgeneration": 5104,
      "Ġmathemat": 5105,
      "Ġcredit": 5106,
      "Ġanimals": 5107,
      "Ġdim": 5108,
      "Ġroles": 5109,
      "Ġreligion": 5110,
      "Ġarms": 5111,
      "Ġdivided": 5112,
      "Ġrapid": 5113,
      "Ġindependence": 5114,
      "Ġfame": 5115,
      "Ġassum": 5116,
      "hist": 5117,
      "etery": 5118,
      "Ġtas": 5119,
      "kes": 5120,
      "Ġconcent": 5121,
      "Ġcore": 5122,
      "Ġaccepted": 5123,
      "Ġaudience": 5124,
      "Ġimperial": 5125,
      "Ġstorm": 5126,
      "Ġlink": 5127,
      "Ġ1936": 5128,
      "Ġniger": 5129,
      "Ġagent": 5130,
      "Ġshel": 5131,
      "Ġcemetery": 5132,
      "Ġadvant": 5133,
      "Ġguest": 5134,
      "Ġfederation": 5135,
      "Ġstephen": 5136,
      "Ġtrip": 5137,
      "itled": 5138,
      "Ġalt": 5139,
      "Ġsons": 5140,
      "Ġoregon": 5141,
      "Ġpurchased": 5142,
      "Ġcris": 5143,
      "Ġavoid": 5144,
      "Ġdestroyed": 5145,
      "Ð½": 5146,
      "Ġimprove": 5147,
      "onym": 5148,
      "Ġkansas": 5149,
      "Ġkal": 5150,
      "Ġwins": 5151,
      "Ġexhibition": 5152,
      "olis": 5153,
      "Ġphysic": 5154,
      "Ġgran": 5155,
      "Ġfreder": 5156,
      "asty": 5157,
      "Ġdoll": 5158,
      "Ġcombat": 5159,
      "yard": 5160,
      "Ġnorwegian": 5161,
      "Ġmissouri": 5162,
      "Ġplease": 5163,
      "76": 5164,
      "Ġamaz": 5165,
      "Ġscript": 5166,
      "Ġhosted": 5167,
      "Ġstraight": 5168,
      "Ġib": 5169,
      "Ġbes": 5170,
      "ho": 5171,
      "aki": 5172,
      "mun": 5173,
      "Ġdefeat": 5174,
      "Ġsad": 5175,
      "heim": 5176,
      "cles": 5177,
      "Ġpy": 5178,
      "Ġofficials": 5179,
      "Ġmemory": 5180,
      "Ġeag": 5181,
      "Ġtall": 5182,
      "Ġopportunity": 5183,
      "ika": 5184,
      "athan": 5185,
      "Ġtheme": 5186,
      "western": 5187,
      "anta": 5188,
      "Ġadapt": 5189,
      "gi": 5190,
      "Ġvehicles": 5191,
      "Ġrein": 5192,
      "sey": 5193,
      "Ġfemales": 5194,
      "Ġreference": 5195,
      "Ġproperties": 5196,
      "ruit": 5197,
      "osa": 5198,
      "100": 5199,
      "Ġchamber": 5200,
      "Ġdream": 5201,
      "Ġraj": 5202,
      "Ġassess": 5203,
      "Ġdefend": 5204,
      "Ġsnow": 5205,
      "Ġweather": 5206,
      "Ġdat": 5207,
      "Ġbarb": 5208,
      "ilton": 5209,
      "Ġfashion": 5210,
      "Ġapplications": 5211,
      "Ġbond": 5212,
      "Ġspons": 5213,
      "Ġexisting": 5214,
      "Ġyounger": 5215,
      "andon": 5216,
      "Ġtheater": 5217,
      "Ġsky": 5218,
      "Ġhav": 5219,
      "Ġ1938": 5220,
      "Ġassigned": 5221,
      "Ġinsurance": 5222,
      "Ġfeet": 5223,
      "Ġremember": 5224,
      "usion": 5225,
      "Ġsr": 5226,
      "Ġcontain": 5227,
      "Ġflow": 5228,
      "Ġbrook": 5229,
      "Ġaccident": 5230,
      "gely": 5231,
      "Ġsupporting": 5232,
      "Ġallowing": 5233,
      "ender": 5234,
      "Ġchemical": 5235,
      "Ġ1918": 5236,
      "Ġfinish": 5237,
      "Ġcommunication": 5238,
      "Ġhouseholds": 5239,
      "Ġbru": 5240,
      "Ġfear": 5241,
      "Ġpatients": 5242,
      "Ġserves": 5243,
      "Ġcaptured": 5244,
      "Ġgil": 5245,
      "Ġbillion": 5246,
      "Ġ500": 5247,
      "Ġturkey": 5248,
      "Ġton": 5249,
      "Ġvess": 5250,
      "Ġconfirmed": 5251,
      "Ġagreed": 5252,
      "rence": 5253,
      "Ġinvestment": 5254,
      "Ġunderstanding": 5255,
      "Ġalf": 5256,
      "Ġcriminal": 5257,
      "Ġliterary": 5258,
      "Ġweekly": 5259,
      "Ġconstitution": 5260,
      "78": 5261,
      "eman": 5262,
      "alle": 5263,
      "oren": 5264,
      "Ġvisual": 5265,
      "oted": 5266,
      "Ġsel": 5267,
      "Ġvocal": 5268,
      "Ġorth": 5269,
      "Ġbrigade": 5270,
      "cow": 5271,
      "94": 5272,
      "Ġarchae": 5273,
      "alled": 5274,
      "Ġpoetry": 5275,
      "Ġariz": 5276,
      "isa": 5277,
      "Ġfacility": 5278,
      "Ġcomics": 5279,
      "Ġfaith": 5280,
      "Ġchristmas": 5281,
      "ented": 5282,
      "Ġgree": 5283,
      "2007": 5284,
      "ĠâĢł": 5285,
      "Ġjews": 5286,
      "di": 5287,
      "Ġtrav": 5288,
      "Ġtried": 5289,
      "ras": 5290,
      "Ġvolunte": 5291,
      "Ġpoll": 5292,
      "Ġones": 5293,
      "Ġbure": 5294,
      "Ġchoose": 5295,
      "2010": 5296,
      "Ġvari": 5297,
      "Ġgreg": 5298,
      "Ġguy": 5299,
      "Ġpresidential": 5300,
      "Ġconflict": 5301,
      "Ġcow": 5302,
      "Ġemployees": 5303,
      "Ġanimal": 5304,
      "Ġcontinues": 5305,
      "2000": 5306,
      "ami": 5307,
      "fit": 5308,
      "Ġsave": 5309,
      "Ġproceed": 5310,
      "ses": 5311,
      "Ġax": 5312,
      "Ġans": 5313,
      "Ġstandards": 5314,
      "Ġconservative": 5315,
      "uts": 5316,
      "Ġdirectors": 5317,
      "Ġdavis": 5318,
      "Ä±": 5319,
      "apore": 5320,
      "Ġinjury": 5321,
      "Ġkur": 5322,
      "Ġletters": 5323,
      "Ġdeclared": 5324,
      "Ġroof": 5325,
      "Ġbudget": 5326,
      "Ġpros": 5327,
      "Ġrespectively": 5328,
      "%)": 5329,
      "law": 5330,
      "aria": 5331,
      "zo": 5332,
      "gro": 5333,
      "Ġpod": 5334,
      "Ġatlantic": 5335,
      "mine": 5336,
      "Ġprepar": 5337,
      "58": 5338,
      "Ġslight": 5339,
      "Ġreduced": 5340,
      "Ġwidely": 5341,
      "Ġestimated": 5342,
      "Ġlect": 5343,
      "edia": 5344,
      "Ġiraq": 5345,
      "aha": 5346,
      "Ġelector": 5347,
      "Ġtennes": 5348,
      "ensis": 5349,
      "anna": 5350,
      "Ġmalays": 5351,
      "lines": 5352,
      "Ġarizona": 5353,
      "Ġcompar": 5354,
      "sky": 5355,
      "Ġrecognized": 5356,
      "2006": 5357,
      "Ġvic": 5358,
      "Ġ1937": 5359,
      "Ġdefence": 5360,
      "asy": 5361,
      "Ġross": 5362,
      "osen": 5363,
      "Ġkick": 5364,
      "Ġrespond": 5365,
      "Ġbegins": 5366,
      "Ġhills": 5367,
      "fam": 5368,
      "Ġfans": 5369,
      "Ġdoor": 5370,
      "2009": 5371,
      "Ġtitled": 5372,
      "Ġadopted": 5373,
      "Ġattacks": 5374,
      "Ġkept": 5375,
      "Ġregions": 5376,
      "Ġgang": 5377,
      "Ġedge": 5378,
      "Ġexer": 5379,
      "Ġfields": 5380,
      "Ġprofession": 5381,
      "Ġtennessee": 5382,
      "Ġsurrounding": 5383,
      "Ġsri": 5384,
      "Ġbusinesses": 5385,
      "Ġnuclear": 5386,
      "2008": 5387,
      "Ġseats": 5388,
      "lying": 5389,
      "Ġultim": 5390,
      "Ġconnected": 5391,
      "Ġgained": 5392,
      "Ġaccompan": 5393,
      "Ġjourney": 5394,
      "Ġfalls": 5395,
      "Ġexpans": 5396,
      "Ġpin": 5397,
      "aga": 5398,
      "Ġaid": 5399,
      "ext": 5400,
      "Ġjesus": 5401,
      "uv": 5402,
      "Ġopposition": 5403,
      "illery": 5404,
      "eria": 5405,
      "Ġpublication": 5406,
      "Ġtwice": 5407,
      "Ġbeautiful": 5408,
      "Ġbos": 5409,
      "ounded": 5410,
      "Ġflying": 5411,
      "Ġcells": 5412,
      "Ġexclus": 5413,
      "Ġdemand": 5414,
      "Ġsale": 5415,
      "Ġmarc": 5416,
      "Ġsax": 5417,
      "Ġclasses": 5418,
      "Ġbenefits": 5419,
      "Ġmoment": 5420,
      "Ġcha": 5421,
      "mes": 5422,
      "Ġsche": 5423,
      "osis": 5424,
      "Ġcool": 5425,
      "Ġpictures": 5426,
      "Ġpalace": 5427,
      "olved": 5428,
      "Ġpowerful": 5429,
      "Ġcategory": 5430,
      "pur": 5431,
      "Ġfro": 5432,
      "2011": 5433,
      "Ġlosing": 5434,
      "Ġsetting": 5435,
      "Ġnominated": 5436,
      "Ġauthorities": 5437,
      "Ġpret": 5438,
      "Ġversions": 5439,
      "Ġperformances": 5440,
      "Ġwonder": 5441,
      "Ġsolid": 5442,
      "Ġcandidates": 5443,
      "Ġconclud": 5444,
      "Ġdistinct": 5445,
      "Ġpull": 5446,
      "claim": 5447,
      "Ġcorner": 5448,
      "Ġactions": 5449,
      "Ġjournalist": 5450,
      "gency": 5451,
      "Ġconnection": 5452,
      "Ġbrain": 5453,
      "Ġflood": 5454,
      "Ġopin": 5455,
      "Ġlargely": 5456,
      "oir": 5457,
      "Ġinspired": 5458,
      "Ġmes": 5459,
      "fall": 5460,
      "Ġitems": 5461,
      "gn": 5462,
      "fefefe": 5463,
      "gb": 5464,
      "Ġpartnership": 5465,
      "Ġcoaches": 5466,
      "Ġbudd": 5467,
      "Ġaw": 5468,
      "ante": 5469,
      "aret": 5470,
      "Ġtrees": 5471,
      "Ġidentified": 5472,
      "Ġdrums": 5473,
      "Ġabandon": 5474,
      "Ġkl": 5475,
      "Ġrise": 5476,
      "Ġexpert": 5477,
      "Ġoccurred": 5478,
      "Ġsector": 5479,
      "2005": 5480,
      "Ġpromotion": 5481,
      "what": 5482,
      "opher": 5483,
      "Ġabd": 5484,
      "Ġnorway": 5485,
      "Ġathletics": 5486,
      "Ġquite": 5487,
      "Ġmulti": 5488,
      "Ġplus": 5489,
      "Ġquant": 5490,
      "Ġfan": 5491,
      "box": 5492,
      "Ġphilippines": 5493,
      "Ġresulting": 5494,
      "Ġimages": 5495,
      "Ġbirds": 5496,
      "Ġexpect": 5497,
      "Ġcosts": 5498,
      "Ġconvention": 5499,
      "Ġacts": 5500,
      "Ġnep": 5501,
      "Ġexperien": 5502,
      "Ġpool": 5503,
      "Ġresear": 5504,
      "Ġsuffered": 5505,
      "Ġsixth": 5506,
      "gas": 5507,
      "lyn": 5508,
      "eline": 5509,
      "Ġunc": 5510,
      "Ġreasons": 5511,
      "Ġshared": 5512,
      "Ġsingapore": 5513,
      "Ġregarding": 5514,
      "omot": 5515,
      "urb": 5516,
      "Ġeasily": 5517,
      "Ġmaryland": 5518,
      "Ġreality": 5519,
      "',": 5520,
      "Ġhart": 5521,
      "42": 5522,
      "igrants": 5523,
      "Ġtu": 5524,
      "Ġnap": 5525,
      "Ġdiplom": 5526,
      "92": 5527,
      "iser": 5528,
      "Ġphilosophy": 5529,
      "Ġpicture": 5530,
      "Ġschedule": 5531,
      "utional": 5532,
      "Ġdram": 5533,
      "Ġkhan": 5534,
      "mers": 5535,
      "Ġlewis": 5536,
      "Ġyes": 5537,
      "Ġresc": 5538,
      "Ġideas": 5539,
      "Ġtaught": 5540,
      "Ġmoon": 5541,
      "Ġdriver": 5542,
      "Ġukraine": 5543,
      "Ġbath": 5544,
      "Ġarmed": 5545,
      "ori": 5546,
      "Ġmerch": 5547,
      "Ġark": 5548,
      "Ġhorn": 5549,
      "friend": 5550,
      "oli": 5551,
      "Ġkitt": 5552,
      "Ġmedian": 5553,
      "Ġanyone": 5554,
      "Ġwrestling": 5555,
      "Ġhydro": 5556,
      "Ġgram": 5557,
      "Ġstudios": 5558,
      "93": 5559,
      "Ġpair": 5560,
      "ifically": 5561,
      "41": 5562,
      "Ġinternal": 5563,
      "asters": 5564,
      "ito": 5565,
      "Ġexpanded": 5566,
      "Ġ1919": 5567,
      "Ġimag": 5568,
      "Ġfu": 5569,
      "wart": 5570,
      "Ġhou": 5571,
      "Ġfinals": 5572,
      "lah": 5573,
      "Ġcos": 5574,
      "Ġveter": 5575,
      "Ġ1935": 5576,
      "alty": 5577,
      "bell": 5578,
      "Ġscoring": 5579,
      "Ġneighborhood": 5580,
      "Ġtools": 5581,
      "Ġcommunist": 5582,
      "Ġamericans": 5583,
      "Ġphase": 5584,
      "Ġwrite": 5585,
      "Ġperforming": 5586,
      "style": 5587,
      "Ġdynam": 5588,
      "Ġky": 5589,
      "Ġeducated": 5590,
      "Ġattorney": 5591,
      "onic": 5592,
      "Ġemot": 5593,
      "uct": 5594,
      "Ġnewly": 5595,
      "mi": 5596,
      "ighth": 5597,
      "Ġrear": 5598,
      "Ġexamples": 5599,
      "Ġprogramme": 5600,
      "2004": 5601,
      "ishes": 5602,
      "Ġ1914": 5603,
      "Ġseems": 5604,
      "Ġinterior": 5605,
      "zen": 5606,
      "Ġpilot": 5607,
      "Ġmetropolitan": 5608,
      "Ġmist": 5609,
      "Ġpurchase": 5610,
      "Ġphilip": 5611,
      "Ġcopy": 5612,
      "Ġshowed": 5613,
      "Ġalliance": 5614,
      "Ġdecor": 5615,
      "Ġyards": 5616,
      "umber": 5617,
      "Ġbrid": 5618,
      "Ġhour": 5619,
      "Ġfigures": 5620,
      "Ġeyes": 5621,
      "Ġbrazilian": 5622,
      "Ġtruth": 5623,
      "Ġspeech": 5624,
      "Ġtren": 5625,
      "actions": 5626,
      "Ġelectronic": 5627,
      "oti": 5628,
      "Ġdomestic": 5629,
      "Ġiowa": 5630,
      "Ġidentity": 5631,
      "Ġpul": 5632,
      "Ġjam": 5633,
      "which": 5634,
      "'ll": 5635,
      "uses": 5636,
      "Ġ...": 5637,
      "prise": 5638,
      "Ġpup": 5639,
      "Ġsets": 5640,
      "Ġchance": 5641,
      "Ġwheel": 5642,
      "unk": 5643,
      "Ġstarring": 5644,
      "Ġharry": 5645,
      "Ġextrem": 5646,
      "56": 5647,
      "Ġselection": 5648,
      "Ġtells": 5649,
      "Ġmeant": 5650,
      "Ġreturning": 5651,
      "Ġinvestigation": 5652,
      "Ġaqu": 5653,
      "Ġtrains": 5654,
      "Ġoptions": 5655,
      "Ġathletes": 5656,
      "Ġexped": 5657,
      "Ġgolf": 5658,
      "Ġfunding": 5659,
      "astern": 5660,
      "Ġcape": 5661,
      "Ġaware": 5662,
      "Ġgranted": 5663,
      "present": 5664,
      "related": 5665,
      "Ġsoutheast": 5666,
      "Ġproced": 5667,
      "2012": 5668,
      "Ġ1917": 5669,
      "Ġlyn": 5670,
      "body": 5671,
      "Ġbowl": 5672,
      "Ġbehavior": 5673,
      "lets": 5674,
      "Ġpatri": 5675,
      "Ġmaximum": 5676,
      "Ġresulted": 5677,
      "ially": 5678,
      "Ġformerly": 5679,
      "Ġ33": 5680,
      "Ġtag": 5681,
      "pton": 5682,
      "Ġmoscow": 5683,
      "Ġshall": 5684,
      "cs": 5685,
      "rant": 5686,
      "Ġsleep": 5687,
      "Ġrober": 5688,
      "Ġranked": 5689,
      "87": 5690,
      "ovic": 5691,
      "vant": 5692,
      "Ġsides": 5693,
      "Ġgain": 5694,
      "Ġpieces": 5695,
      "Ġimpl": 5696,
      "Ġheard": 5697,
      "Ġmagn": 5698,
      "Ġplanet": 5699,
      "vd": 5700,
      "Ġmelbourne": 5701,
      "Ġnarr": 5702,
      "Ġsunday": 5703,
      "unct": 5704,
      "Ġkat": 5705,
      "Ġboat": 5706,
      "Ġfuel": 5707,
      "oles": 5708,
      "www": 5709,
      "Ġkings": 5710,
      "Ġoption": 5711,
      "Ġgi": 5712,
      "Ġlegend": 5713,
      "Ġpowers": 5714,
      "Ġspeak": 5715,
      "Ġ1928": 5716,
      "Ġul": 5717,
      "ĠÎ": 5718,
      "Ġconsequ": 5719,
      "Ġrough": 5720,
      "Ġultimately": 5721,
      "Ġsubs": 5722,
      "Ġorders": 5723,
      "ird": 5724,
      "2013": 5725,
      "Ġsimon": 5726,
      "Ġbot": 5727,
      "43": 5728,
      "season": 5729,
      "ayer": 5730,
      "Ġow": 5731,
      "Ġ1933": 5732,
      "89": 5733,
      "05": 5734,
      "Ġflat": 5735,
      "Ġoccasion": 5736,
      "Ġreduce": 5737,
      "pson": 5738,
      "Ġsingers": 5739,
      "Ġburied": 5740,
      "Ġterror": 5741,
      "Ġqueensland": 5742,
      "Ġlocations": 5743,
      "'d": 5744,
      "Ġpermanent": 5745,
      "Ġ1929": 5746,
      "Ġgets": 5747,
      "Ġcalc": 5748,
      "Ġartillery": 5749,
      "uese": 5750,
      "ipe": 5751,
      "ulate": 5752,
      "Ġchosen": 5753,
      "alo": 5754,
      "aine": 5755,
      "iang": 5756,
      "Ġdownload": 5757,
      "Ġemail": 5758,
      "Ġstatement": 5759,
      "Ġfrequently": 5760,
      "Ġload": 5761,
      "06": 5762,
      "Ġcel": 5763,
      "ategy": 5764,
      "Ġnik": 5765,
      "Ġtony": 5766,
      "Ġcustomer": 5767,
      "Ġmine": 5768,
      "Ġviolence": 5769,
      "Ġago": 5770,
      "ju": 5771,
      "oster": 5772,
      "Ġplayoff": 5773,
      "Ġhomes": 5774,
      "Ġbird": 5775,
      "Ġdevice": 5776,
      "2003": 5777,
      "Ġkentucky": 5778,
      "enna": 5779,
      "Ġgab": 5780,
      "zh": 5781,
      "ologies": 5782,
      "Ġrecognition": 5783,
      "lywood": 5784,
      "Ġnam": 5785,
      "Ġlam": 5786,
      "Ġfict": 5787,
      "Â°": 5788,
      "Ġvietnam": 5789,
      "Ġdesignated": 5790,
      "Ġment": 5791,
      "Ġbright": 5792,
      "Ġ1934": 5793,
      "Ġobtained": 5794,
      "Ġturkish": 5795,
      "Ġmile": 5796,
      "iny": 5797,
      "Ġarrested": 5798,
      "erb": 5799,
      "Ġstrategy": 5800,
      "Ġbaby": 5801,
      "cop": 5802,
      "Ġhyp": 5803,
      "ambig": 5804,
      "Ġvel": 5805,
      "Ġtropical": 5806,
      "Ġille": 5807,
      "Ġsuggested": 5808,
      "Ġwhit": 5809,
      "Ġnorthwest": 5810,
      "Ġpav": 5811,
      "Ġspacewatch": 5812,
      "Ġshut": 5813,
      "caa": 5814,
      "Ġwalter": 5815,
      "Ġfunds": 5816,
      "Ġbanks": 5817,
      "Ġadam": 5818,
      "Ġnorm": 5819,
      "Ġappoint": 5820,
      "Ġmagic": 5821,
      "Ġcash": 5822,
      "abad": 5823,
      "omer": 5824,
      "ivals": 5825,
      "Ġhans": 5826,
      "Ġ1932": 5827,
      "2001": 5828,
      "Ġholds": 5829,
      "Ġchapter": 5830,
      "Ġip": 5831,
      "Ġtail": 5832,
      "07": 5833,
      "91": 5834,
      "ogen": 5835,
      "outs": 5836,
      "Ġ1910": 5837,
      "nor": 5838,
      "igration": 5839,
      "igation": 5840,
      "Ġspok": 5841,
      "Ġsolution": 5842,
      "2014": 5843,
      "Ġgord": 5844,
      "Ġpainter": 5845,
      "Ġmanagers": 5846,
      "Ġmiller": 5847,
      "cia": 5848,
      "Ġstrike": 5849,
      "Ġbottom": 5850,
      "Ġ1900": 5851,
      "Ġlimit": 5852,
      "top": 5853,
      "Ġmarked": 5854,
      "Ġcroat": 5855,
      "Ġdeveloping": 5856,
      "Ġchile": 5857,
      "Ġdepos": 5858,
      "Ġcolonial": 5859,
      "aints": 5860,
      "Ġ37": 5861,
      "Ġmental": 5862,
      "wealth": 5863,
      "Ġphone": 5864,
      "Ġconcer": 5865,
      "Ġpione": 5866,
      "iary": 5867,
      "din": 5868,
      "Ġaustria": 5869,
      "Ġexpansion": 5870,
      "Ġrequirements": 5871,
      "Ġ1924": 5872,
      "Ġquebec": 5873,
      "Ġisraeli": 5874,
      "Ġholding": 5875,
      "Ġgay": 5876,
      "Ġbelg": 5877,
      "Ġworldwide": 5878,
      "Ġ(,": 5879,
      "Ġlemmon": 5880,
      "Ġford": 5881,
      "Ġadditionally": 5882,
      "Ġanderson": 5883,
      "Ġalab": 5884,
      "Ġbought": 5885,
      "alf": 5886,
      "Ġswiss": 5887,
      "ographer": 5888,
      "itzerland": 5889,
      "oh": 5890,
      "Ġdefined": 5891,
      "Ġactresses": 5892,
      "pool": 5893,
      "kyo": 5894,
      "Ġhind": 5895,
      "ĠĠĠ": 5896,
      "Ġdynasty": 5897,
      "Ġale": 5898,
      "Ġscale": 5899,
      "Ġconservation": 5900,
      "Ġ38": 5901,
      "Ġlyrics": 5902,
      "coln": 5903,
      "illing": 5904,
      "Ġretirement": 5905,
      "Ġshr": 5906,
      "Ġom": 5907,
      "ÑĤ": 5908,
      "atures": 5909,
      "Ġincident": 5910,
      "2015": 5911,
      "Ġpages": 5912,
      "Ġintroduction": 5913,
      "'.": 5914,
      "Ġready": 5915,
      "Ġguns": 5916,
      "dam": 5917,
      "etic": 5918,
      "enez": 5919,
      "Ġsubsequent": 5920,
      "rell": 5921,
      "eller": 5922,
      "Ġweapons": 5923,
      "Ġunable": 5924,
      "Ġwrong": 5925,
      "Ġgreatest": 5926,
      "anes": 5927,
      "count": 5928,
      "Ġagricultural": 5929,
      "Ġfred": 5930,
      "Ġgraduate": 5931,
      "Ġkam": 5932,
      "Ġapproved": 5933,
      "Ġjane": 5934,
      "Ġhistorian": 5935,
      "Ġgym": 5936,
      "Ġhonours": 5937,
      "Ġuniversities": 5938,
      "08": 5939,
      "Ġportray": 5940,
      "ifications": 5941,
      "Ġfactory": 5942,
      "Ġspecifically": 5943,
      "lahoma": 5944,
      "Ġfocused": 5945,
      "Ġcompetitions": 5946,
      "ructure": 5947,
      "Ġcad": 5948,
      "Ġ44": 5949,
      "Ġsurg": 5950,
      "ogle": 5951,
      "Ġsed": 5952,
      "Ġsuff": 5953,
      "Ġauth": 5954,
      "uted": 5955,
      "Ġltd": 5956,
      "ambiguation": 5957,
      "Ġsoul": 5958,
      "otic": 5959,
      "Ġroads": 5960,
      "Ġdioc": 5961,
      "also": 5962,
      "Ġbrian": 5963,
      "oto": 5964,
      "Ġextensive": 5965,
      "Ġrif": 5966,
      "Ġpir": 5967,
      "Ġprotected": 5968,
      "Ġcommonwealth": 5969,
      "Ġcovers": 5970,
      "Ġfactors": 5971,
      "pm": 5972,
      "Ġreflect": 5973,
      "Ġdetect": 5974,
      "Ġtank": 5975,
      "Ġbear": 5976,
      "Ġportuguese": 5977,
      "Ġhat": 5978,
      "Ġjoh": 5979,
      "iva": 5980,
      "Ġsor": 5981,
      "Ġcircuit": 5982,
      "Ġcla": 5983,
      "Ġaffect": 5984,
      "Ġjacob": 5985,
      "Ġshape": 5986,
      "lar": 5987,
      "Ġahead": 5988,
      "Ġcomfort": 5989,
      "Ġ1931": 5990,
      "Ġprovincial": 5991,
      "Ġgrey": 5992,
      "Ġ1927": 5993,
      "Ġfunctions": 5994,
      "Ġends": 5995,
      "Ġbrun": 5996,
      "57": 5997,
      "Ġsituated": 5998,
      "Ġsid": 5999,
      "Ġbeng": 6000,
      "Ġmanchester": 6001,
      "Ġsatur": 6002,
      "Ġportion": 6003,
      "Ġwealth": 6004,
      "Ġhin": 6005,
      "2002": 6006,
      "Ġguid": 6007,
      "Ġethnic": 6008,
      "Ġtick": 6009,
      "Ġgreece": 6010,
      "Ġliver": 6011,
      "Ġ34": 6012,
      "Ġviews": 6013,
      "Ġutil": 6014,
      "Ġreceiving": 6015,
      "iants": 6016,
      "Ġvision": 6017,
      "Ġbachel": 6018,
      "Ġsteam": 6019,
      "hedral": 6020,
      "fficient": 6021,
      "Ġimportance": 6022,
      "Ġdensity": 6023,
      "Ġtemperature": 6024,
      "Ġ1912": 6025,
      "Ġ1922": 6026,
      "Ġdanish": 6027,
      "Ġborough": 6028,
      "Ġdiet": 6029,
      "active": 6030,
      "een": 6031,
      "Ġcasino": 6032,
      "67": 6033,
      "Ġoklahoma": 6034,
      "Ġrelatively": 6035,
      "Ġlocomot": 6036,
      "Ġrecordings": 6037,
      "icut": 6038,
      "Ġachieved": 6039,
      "Ġtreas": 6040,
      "Ġcalls": 6041,
      "Ġsie": 6042,
      "Ġswitzerland": 6043,
      "mat": 6044,
      "Ġcrisis": 6045,
      "Ġonto": 6046,
      "Ġapparent": 6047,
      "Ġrid": 6048,
      "Ġheight": 6049,
      "Ġlincoln": 6050,
      "Ġadmir": 6051,
      "Ġwithdra": 6052,
      "Ġhug": 6053,
      "Ġsty": 6054,
      "Ġactual": 6055,
      "Ġresistance": 6056,
      "Ġathletic": 6057,
      "Ġdj": 6058,
      "Ġtokyo": 6059,
      "Ġnarrow": 6060,
      "Ġnich": 6061,
      "Ġsession": 6062,
      "Ġfounding": 6063,
      "Ġsustain": 6064,
      "rum": 6065,
      "olas": 6066,
      "Ġscheduled": 6067,
      "Ġtask": 6068,
      "Ġrud": 6069,
      "Ġlicens": 6070,
      "Ġwaters": 6071,
      "Ġgate": 6072,
      "from": 6073,
      "01": 6074,
      "Ġretail": 6075,
      "ao": 6076,
      "Ġlists": 6077,
      "Ġalabama": 6078,
      "Ġambass": 6079,
      "phas": 6080,
      "Ġmall": 6081,
      "Ġsurname": 6082,
      "sl": 6083,
      "Ġisn": 6084,
      "Ġ1921": 6085,
      "Ġkilling": 6086,
      "Ġtechniques": 6087,
      "hop": 6088,
      "long": 6089,
      "Ġequal": 6090,
      "Ġoldest": 6091,
      "Ġgor": 6092,
      "tim": 6093,
      "aver": 6094,
      "Ġlith": 6095,
      "Ġdocuments": 6096,
      "Ġqualified": 6097,
      "Ġsuperv": 6098,
      "Ġfictional": 6099,
      "Ġmotion": 6100,
      "Ġaccur": 6101,
      "Ġarmen": 6102,
      "Ġjord": 6103,
      "Ġpaintings": 6104,
      "Ġkids": 6105,
      "Ġthor": 6106,
      "Ġshad": 6107,
      "stream": 6108,
      "Ġwalls": 6109,
      "Ġpope": 6110,
      "Ġwitness": 6111,
      "ti": 6112,
      "Ġcu": 6113,
      "Ġemergency": 6114,
      "Ġhear": 6115,
      "Ġcomic": 6116,
      "Ġ64": 6117,
      "Ġlux": 6118,
      "Ġfinance": 6119,
      "iform": 6120,
      "Ġ1925": 6121,
      "Ġbillboard": 6122,
      "Ġhappy": 6123,
      "while": 6124,
      "cluding": 6125,
      "Ġsole": 6126,
      "Ġtend": 6127,
      "Ġcomposition": 6128,
      "elle": 6129,
      "ez": 6130,
      "tw": 6131,
      "Ġbou": 6132,
      "Ġestablishment": 6133,
      "Ġhoward": 6134,
      "Ġantonio": 6135,
      "Ġfailure": 6136,
      "Ġnag": 6137,
      "Ġending": 6138,
      "Ġcorrect": 6139,
      "Ġhamilton": 6140,
      "Ġdrink": 6141,
      "orders": 6142,
      "Ġexpos": 6143,
      "vens": 6144,
      "Ġdecades": 6145,
      "engers": 6146,
      "Ġstreets": 6147,
      "Ġmusician": 6148,
      "haps": 6149,
      "Ġ1926": 6150,
      "disambiguation": 6151,
      "2016": 6152,
      "Ġagriculture": 6153,
      "Ġreject": 6154,
      "Ġlut": 6155,
      "Ġlawyer": 6156,
      "organ": 6157,
      "Ġdevices": 6158,
      "Ġdougl": 6159,
      "Ġoptim": 6160,
      "ologists": 6161,
      "Ġask": 6162,
      "âĢ¦": 6163,
      "Ġattempts": 6164,
      "Ġelementary": 6165,
      "Ġwolf": 6166,
      "uma": 6167,
      "Ġenemy": 6168,
      "rome": 6169,
      "Ġsmart": 6170,
      "rising": 6171,
      "Ġinterp": 6172,
      "umes": 6173,
      "Ġstran": 6174,
      "uate": 6175,
      "wich": 6176,
      "erto": 6177,
      "Ġvideos": 6178,
      "Ġflu": 6179,
      "tr": 6180,
      "Ġfellows": 6181,
      "Ġncaa": 6182,
      "omen": 6183,
      "Ġpalest": 6184,
      "Ġunlike": 6185,
      "Ġhang": 6186,
      "Ġdoct": 6187,
      "Ġmississ": 6188,
      "Ġbuff": 6189,
      "Ġsenator": 6190,
      "Ġdifference": 6191,
      "Ġvalues": 6192,
      "Ġprefer": 6193,
      "Ġharvard": 6194,
      "Ġcolonel": 6195,
      "Ġsend": 6196,
      "68": 6197,
      "Ġmanufacturing": 6198,
      "point": 6199,
      "ateur": 6200,
      "Ġtranslation": 6201,
      "Ġwy": 6202,
      "Ġlaure": 6203,
      "Ġcreative": 6204,
      "Ġjay": 6205,
      "chi": 6206,
      "Ġbroke": 6207,
      "Ġplate": 6208,
      "Ġraf": 6209,
      "Ġstanding": 6210,
      "Ġoffices": 6211,
      "Ġbroadcasting": 6212,
      "Ġadap": 6213,
      "Ġnin": 6214,
      "ublin": 6215,
      "Ġstorage": 6216,
      "Ġoppon": 6217,
      "Ġchen": 6218,
      "Ġaired": 6219,
      "Ġku": 6220,
      "aro": 6221,
      "Ġ1923": 6222,
      "Ġaudio": 6223,
      "Ġstrength": 6224,
      "ogy": 6225,
      "sis": 6226,
      "Ġsucceeded": 6227,
      "Ġcontaining": 6228,
      "bal": 6229,
      "unc": 6230,
      "Ġmaintain": 6231,
      "ippi": 6232,
      "Ġshell": 6233,
      "Ġblues": 6234,
      "Ġorange": 6235,
      "orro": 6236,
      "equ": 6237,
      "Ġnfl": 6238,
      "going": 6239,
      "Ġbachelor": 6240,
      "Ġbah": 6241,
      "Ġcarbon": 6242,
      "Ġfinn": 6243,
      "Ġ1916": 6244,
      "Ġpassenger": 6245,
      "Ġbureau": 6246,
      "value": 6247,
      "Ġescape": 6248,
      "abil": 6249,
      "Ġcollected": 6250,
      "Ġchain": 6251,
      "Ġgib": 6252,
      "Ġern": 6253,
      "Ġhamp": 6254,
      "Ġpatrick": 6255,
      "Ġcoordin": 6256,
      "care": 6257,
      "uing": 6258,
      "agen": 6259,
      "Ġarena": 6260,
      "roit": 6261,
      "64": 6262,
      "Ġteen": 6263,
      "Ġnegative": 6264,
      "Ġsalt": 6265,
      "Ġtoward": 6266,
      "Ġdetermined": 6267,
      "Ġlank": 6268,
      "Ġspin": 6269,
      "Ġdecre": 6270,
      "Ġkaz": 6271,
      "Ġmp": 6272,
      "Ġanswer": 6273,
      "sort": 6274,
      "Ġanthony": 6275,
      "atus": 6276,
      "Ġsecure": 6277,
      "pes": 6278,
      "Ġhouston": 6279,
      "dd": 6280,
      "Ġ1915": 6281,
      "Ġdol": 6282,
      "Ġsolutions": 6283,
      "Ġuc": 6284,
      "Ġconnecticut": 6285,
      "Ġbiden": 6286,
      "Ġfile": 6287,
      "rec": 6288,
      "Ġmole": 6289,
      "Ġcommissioned": 6290,
      "Ġnut": 6291,
      "ager": 6292,
      "Ġslightly": 6293,
      "09": 6294,
      "Ġpromote": 6295,
      "Ġcauses": 6296,
      "Ġzh": 6297,
      "Ġrefused": 6298,
      "Ġportra": 6299,
      "pective": 6300,
      "Ġblog": 6301,
      "run": 6302,
      "Ġbodies": 6303,
      "Ġbroken": 6304,
      "anian": 6305,
      "Ġarrang": 6306,
      "pers": 6307,
      "Ġvisited": 6308,
      "Ġarc": 6309,
      "Ġtherap": 6310,
      "Ġapprop": 6311,
      "Ġflo": 6312,
      "cha": 6313,
      "Ġastron": 6314,
      "Ġassistance": 6315,
      "vis": 6316,
      "order": 6317,
      "Ġbun": 6318,
      "Ġfern": 6319,
      "Ġparks": 6320,
      "iller": 6321,
      "áĨ": 6322,
      "yth": 6323,
      "Ġfuck": 6324,
      "gra": 6325,
      "Ġcontrast": 6326,
      "Ġmetro": 6327,
      "iments": 6328,
      "Ġesp": 6329,
      "agu": 6330,
      "Ġinstitution": 6331,
      "Ġnone": 6332,
      "Ġdisestabl": 6333,
      "2017": 6334,
      "Ġtaiwan": 6335,
      "Ġinfrast": 6336,
      "Ġentitled": 6337,
      "agues": 6338,
      "Ġmessage": 6339,
      "Ġsort": 6340,
      "Ġrus": 6341,
      "Ġrabb": 6342,
      "clusion": 6343,
      "51": 6344,
      "gor": 6345,
      "Ġ(),": 6346,
      "Ġeval": 6347,
      "Ġallen": 6348,
      "icate": 6349,
      "Ġdal": 6350,
      "54": 6351,
      "Ġpow": 6352,
      "iling": 6353,
      "Ġknight": 6354,
      "Ġphoto": 6355,
      "Ġalph": 6356,
      "Ġgrass": 6357,
      "wick": 6358,
      "Ġdeploy": 6359,
      "ardo": 6360,
      "Ġnortheast": 6361,
      "essions": 6362,
      "ista": 6363,
      "Ġregistered": 6364,
      "Ġgoogle": 6365,
      "Ġdropped": 6366,
      "ivery": 6367,
      "Ġgon": 6368,
      "Ġdean": 6369,
      "Ġsignal": 6370,
      "Ġlouisiana": 6371,
      "Ġherself": 6372,
      "Ġcalling": 6373,
      "Ġprix": 6374,
      "Ġtesting": 6375,
      "Ġadvantage": 6376,
      "oured": 6377,
      "Ġnegoti": 6378,
      "Ġaustrian": 6379,
      "Ð¾Ð": 6380,
      "lad": 6381,
      "Ġbry": 6382,
      "Ġdiego": 6383,
      "Ġargentina": 6384,
      "die": 6385,
      "Ġ(;": 6386,
      "term": 6387,
      "onian": 6388,
      "Ġmetres": 6389,
      "52": 6390,
      "Ġemphas": 6391,
      "wal": 6392,
      "Ġpear": 6393,
      "igenous": 6394,
      "ghan": 6395,
      "Ġattempted": 6396,
      "Ġteachers": 6397,
      "Ġmol": 6398,
      "Ġdriving": 6399,
      "eless": 6400,
      "aux": 6401,
      "apes": 6402,
      "dale": 6403,
      "iversary": 6404,
      "appe": 6405,
      "Ġ48": 6406,
      "Ġdemocrats": 6407,
      "Ġkon": 6408,
      "Ġwol": 6409,
      "Ġprincess": 6410,
      "Ġuncle": 6411,
      "Ġaged": 6412,
      "elve": 6413,
      "icial": 6414,
      "olished": 6415,
      "53": 6416,
      "uls": 6417,
      "Ġfighter": 6418,
      "hs": 6419,
      "Ġpractices": 6420,
      "Ġrecommend": 6421,
      "Ġcann": 6422,
      "Ġsettled": 6423,
      "coming": 6424,
      "Ġconfeder": 6425,
      "Ġotherwise": 6426,
      "Ġformula": 6427,
      "Ġhits": 6428,
      "night": 6429,
      "Ġdeleg": 6430,
      "Ġ@": 6431,
      "Ġcathedral": 6432,
      "zer": 6433,
      "Ġcopies": 6434,
      "Ġscholar": 6435,
      "Ġoffering": 6436,
      "Ġexperienced": 6437,
      "Ġmuslim": 6438,
      "Ġsuccessfully": 6439,
      "Ġreign": 6440,
      "ares": 6441,
      "Ġmeasures": 6442,
      "Ġfranch": 6443,
      "ducing": 6444,
      "Ġtreaty": 6445,
      "Ġrepresenting": 6446,
      "Ġchan": 6447,
      "Ġrates": 6448,
      "Ġwings": 6449,
      "Ġelectoral": 6450,
      "Ġalleged": 6451,
      "Ġcabinet": 6452,
      "Ġmedium": 6453,
      "Ġanimated": 6454,
      "Ġbenefit": 6455,
      "cho": 6456,
      "after": 6457,
      "Ġbapt": 6458,
      "udi": 6459,
      "Ġukrainian": 6460,
      "Ġ1913": 6461,
      "Ġstarts": 6462,
      "Ġ300": 6463,
      "racy": 6464,
      "bot": 6465,
      "Ġprefect": 6466,
      "Ġcycle": 6467,
      "Ġfought": 6468,
      "iami": 6469,
      "Ġperhaps": 6470,
      "Ġdatab": 6471,
      "Ġpassing": 6472,
      "Ġcourts": 6473,
      "Ġtru": 6474,
      "white": 6475,
      "59": 6476,
      "Ġdouglas": 6477,
      "Ġgordon": 6478,
      "Ġmans": 6479,
      "Ġcollaboration": 6480,
      "Ġlap": 6481,
      "03": 6482,
      "eld": 6483,
      "aza": 6484,
      "Ġfaced": 6485,
      "Ġprotein": 6486,
      "Ġformal": 6487,
      "Ġsang": 6488,
      "Ġsatell": 6489,
      "pat": 6490,
      "Ġpuerto": 6491,
      "Ġaviation": 6492,
      "Ġpossibly": 6493,
      "Ġattacked": 6494,
      "Ġeat": 6495,
      "Ġdates": 6496,
      "Ġlegacy": 6497,
      "Ġobjects": 6498,
      "Ġtransition": 6499,
      "Ġdetroit": 6500,
      "Ġimproved": 6501,
      "Ġcourses": 6502,
      "1999": 6503,
      "72": 6504,
      "Ġgender": 6505,
      "Ġpriest": 6506,
      "Ġbush": 6507,
      "Ġgoods": 6508,
      "Ġanniversary": 6509,
      "Ġshooting": 6510,
      "Ġlang": 6511,
      "Ġmonitor": 6512,
      "Ġbart": 6513,
      "ctic": 6514,
      "Ġopposed": 6515,
      "Ġjuan": 6516,
      "Ġpas": 6517,
      "Ġcombination": 6518,
      "Ġsi": 6519,
      "Ġsolar": 6520,
      "ugu": 6521,
      "Ġay": 6522,
      "Ġpor": 6523,
      "Ġuniversal": 6524,
      "Ġseventh": 6525,
      "Ġeric": 6526,
      "Ġlev": 6527,
      "iner": 6528,
      "Ġjump": 6529,
      "agan": 6530,
      "Ġsaturday": 6531,
      "Ġhawai": 6532,
      "vements": 6533,
      "Ġbelgium": 6534,
      "Ġcenturies": 6535,
      "Ġmyst": 6536,
      "Ġcanal": 6537,
      "Ġmyth": 6538,
      "Ġthanks": 6539,
      "Ġhumans": 6540,
      "Ġindigenous": 6541,
      "Ġislamic": 6542,
      "Ġmississippi": 6543,
      "Ġalan": 6544,
      "Ġhors": 6545,
      "this": 6546,
      "Ġclark": 6547,
      "Ġtwelve": 6548,
      "isms": 6549,
      "Ġchapel": 6550,
      "Ġfinding": 6551,
      "Ġextension": 6552,
      "84": 6553,
      "died": 6554,
      "ãĥ": 6555,
      "hus": 6556,
      "Ġdc": 6557,
      "Ġoutstanding": 6558,
      "Ġhttp": 6559,
      "rees": 6560,
      "ieval": 6561,
      "Ġevening": 6562,
      "Ġconverted": 6563,
      "Ġsymbol": 6564,
      "Ġdetermine": 6565,
      "Ġcoff": 6566,
      "Ġemployed": 6567,
      "Ġpurpos": 6568,
      "Ġconvent": 6569,
      "Ġscientists": 6570,
      "Ġnurs": 6571,
      "oslav": 6572,
      "Ġere": 6573,
      "Ġcommitted": 6574,
      "Ġcass": 6575,
      "Ġparam": 6576,
      "Ġmrs": 6577,
      "''": 6578,
      "Ġsamuel": 6579,
      "Ġcolomb": 6580,
      "burn": 6581,
      "Ġdesigns": 6582,
      "Ġnad": 6583,
      "Ġinterested": 6584,
      "Ġstream": 6585,
      "Ġbelief": 6586,
      "Ġoccurs": 6587,
      "Ġpolicies": 6588,
      "Ġleads": 6589,
      "Ġappeal": 6590,
      "inals": 6591,
      "Ġamateur": 6592,
      "general": 6593,
      "Ġsouthwest": 6594,
      "Ġflora": 6595,
      "Ġau": 6596,
      "ache": 6597,
      "Ġpus": 6598,
      "Ġdistinguished": 6599,
      "iere": 6600,
      "Ġattract": 6601,
      ";\"|": 6602,
      "Ġsoph": 6603,
      "odox": 6604,
      "ensions": 6605,
      "iency": 6606,
      "04": 6607,
      "tenance": 6608,
      "Ġ1911": 6609,
      "83": 6610,
      "Ġsynd": 6611,
      "Ġintel": 6612,
      "Ġtool": 6613,
      "acing": 6614,
      "bey": 6615,
      "Ġsocorro": 6616,
      "Ġdre": 6617,
      "Ġhelps": 6618,
      "Ġengineers": 6619,
      "Ġsynthe": 6620,
      "hard": 6621,
      "Ġwave": 6622,
      "Ġfrederick": 6623,
      "icts": 6624,
      "Ġ1908": 6625,
      "Ġinhabit": 6626,
      "2018": 6627,
      "Ġpip": 6628,
      "Ġceremony": 6629,
      "Ġmontreal": 6630,
      "Ġrout": 6631,
      "Ġexpedition": 6632,
      "kshire": 6633,
      "Ġrod": 6634,
      "Ġdave": 6635,
      "Ġlob": 6636,
      "Ġphotograph": 6637,
      "Ġtang": 6638,
      "Ġevolution": 6639,
      "Ġfactor": 6640,
      "Ġinstalled": 6641,
      "Ġstores": 6642,
      "irt": 6643,
      "Ġacid": 6644,
      "Ġopportunities": 6645,
      "Ġinterests": 6646,
      "Ġexperiences": 6647,
      "ching": 6648,
      "Ġcinema": 6649,
      "Ġdiagn": 6650,
      "Ġportugal": 6651,
      "Ġdepend": 6652,
      "Ġoccupied": 6653,
      "rete": 6654,
      "cm": 6655,
      "Ġdenmark": 6656,
      "Ġmembership": 6657,
      "Ġsho": 6658,
      "Ġrefuge": 6659,
      "Ġthin": 6660,
      "athe": 6661,
      "Ġpitts": 6662,
      "Ġcards": 6663,
      "Ġinaug": 6664,
      "Ġharm": 6665,
      "82": 6666,
      "Ġdall": 6667,
      "Ġrecre": 6668,
      "Ġcricketers": 6669,
      "Ġcher": 6670,
      "Ġva": 6671,
      "Ġmatthe": 6672,
      "Ġmiami": 6673,
      "Ġparliamentary": 6674,
      "Ġrenew": 6675,
      "Ġgray": 6676,
      "Ġvoted": 6677,
      "Ġtot": 6678,
      "Ġfm": 6679,
      "Ġstress": 6680,
      "Ġwine": 6681,
      "hum": 6682,
      "Ġcircum": 6683,
      "Ġug": 6684,
      "Ġloy": 6685,
      "Ġcausing": 6686,
      "Ġmedieval": 6687,
      "Ġry": 6688,
      "Ġharris": 6689,
      "Ġfinds": 6690,
      "Ġexistence": 6691,
      "Ġpandemic": 6692,
      "Ġmaintenance": 6693,
      "Ġtrained": 6694,
      "Ġsweet": 6695,
      "Ġentrance": 6696,
      "61": 6697,
      "Ġsumm": 6698,
      "Ġdak": 6699,
      "Ġdick": 6700,
      "Ġopinion": 6701,
      "Ġorganisation": 6702,
      "Ġengines": 6703,
      "Ġphill": 6704,
      "Ġconsecut": 6705,
      "02": 6706,
      "2019": 6707,
      "Ġrefers": 6708,
      "Ġgamb": 6709,
      "Ġcharges": 6710,
      "Ġhungarian": 6711,
      "Ġdod": 6712,
      "press": 6713,
      "nee": 6714,
      "63": 6715,
      "Ġrival": 6716,
      "Ġcontributed": 6717,
      "Ġkan": 6718,
      "Ġmining": 6719,
      "bish": 6720,
      "Ġindex": 6721,
      "62": 6722,
      "Ġnel": 6723,
      "angel": 6724,
      "ght": 6725,
      "Ġkin": 6726,
      "Ġabsol": 6727,
      "iley": 6728,
      "79": 6729,
      "Ġcamera": 6730,
      "ilit": 6731,
      "Ġincorporated": 6732,
      "Ġ75": 6733,
      "Ġcontext": 6734,
      "Ġlane": 6735,
      "Ġexpressed": 6736,
      "Ġapple": 6737,
      "Ġ400": 6738,
      "Ġknock": 6739,
      "Ġgm": 6740,
      "Ġeconomics": 6741,
      "Ġcollections": 6742,
      "%.": 6743,
      "lan": 6744,
      "Ġconsisted": 6745,
      "Ġguar": 6746,
      "74": 6747,
      "Ġhuge": 6748,
      "redited": 6749,
      "Ġdrivers": 6750,
      "icide": 6751,
      "wall": 6752,
      "level": 6753,
      "div": 6754,
      "Ġbuck": 6755,
      "Ġinvited": 6756,
      "Ġmond": 6757,
      "Ġsatis": 6758,
      "Ġinvasion": 6759,
      "east": 6760,
      "Ġbangl": 6761,
      "Ġministers": 6762,
      "Ġscenes": 6763,
      "hammad": 6764,
      "Ġwelsh": 6765,
      "Ġwindow": 6766,
      "mod": 6767,
      "Ġbiggest": 6768,
      "81": 6769,
      "Ġexpand": 6770,
      "Ġdating": 6771,
      "you": 6772,
      "Ġselling": 6773,
      "Ġdies": 6774,
      "Ġps": 6775,
      "Ġconstituency": 6776,
      "but": 6777,
      "Ġpapers": 6778,
      "estyle": 6779,
      "Ġrequires": 6780,
      "Ġaffected": 6781,
      "eries": 6782,
      "Ġtig": 6783,
      "Ġhip": 6784,
      "Ġmoore": 6785,
      "Ġbands": 6786,
      "Ġsought": 6787,
      "Ġresidential": 6788,
      "Ġpurposes": 6789,
      "lov": 6790,
      "Ġrestaurant": 6791,
      "Ġcot": 6792,
      "Ġbeauty": 6793,
      "lete": 6794,
      "Ġrio": 6795,
      "Ġcloth": 6796,
      "Ġdress": 6797,
      "Ġresidence": 6798,
      "Ġfisher": 6799,
      "Ġneuro": 6800,
      "Ġjudges": 6801,
      "Ġconcerns": 6802,
      "Ġkevin": 6803,
      "oking": 6804,
      "pir": 6805,
      "Ġsalv": 6806,
      "Ġthousands": 6807,
      "Ġfemin": 6808,
      "Ġextremely": 6809,
      "Ġinvent": 6810,
      "rene": 6811,
      "Ġshowing": 6812,
      "inburgh": 6813,
      "Ġdonald": 6814,
      "Ġhappened": 6815,
      "Ġregulations": 6816,
      "Ġlaid": 6817,
      "Ġabandoned": 6818,
      "Ġcaval": 6819,
      "Ġyout": 6820,
      "Ġing": 6821,
      "Ġentirely": 6822,
      "Ġcompre": 6823,
      "kar": 6824,
      "Ġsugar": 6825,
      "Ġdiscovery": 6826,
      "ui": 6827,
      "dist": 6828,
      "Ġexerc": 6829,
      "Ġfurn": 6830,
      "Ġindonesia": 6831,
      "Ġendemic": 6832,
      "Ġarkansas": 6833,
      "Ġassociate": 6834,
      "Ġscar": 6835,
      "cious": 6836,
      "Ġcoverage": 6837,
      "Ġterra": 6838,
      "Ġapply": 6839,
      "Ġsacr": 6840,
      "Ġamend": 6841,
      "Ġgent": 6842,
      "Ġrestrict": 6843,
      "Ġlun": 6844,
      "icit": 6845,
      "incorporated": 6846,
      "cies": 6847,
      "Ġachieve": 6848,
      "father": 6849,
      "Ġproductions": 6850,
      "Ġphen": 6851,
      "rip": 6852,
      "Ġ42": 6853,
      "Ġfried": 6854,
      "Ġyor": 6855,
      "Ġmonument": 6856,
      "Ġroberts": 6857,
      "71": 6858,
      "Ġengaged": 6859,
      "Ġdiamond": 6860,
      "Ġqualifying": 6861,
      "1998": 6862,
      "Ġconqu": 6863,
      "Ġliqu": 6864,
      "Ġphysics": 6865,
      "door": 6866,
      "uri": 6867,
      "ml": 6868,
      "iled": 6869,
      "Ġseconds": 6870,
      "\"),": 6871,
      "vent": 6872,
      "Ġ49": 6873,
      "Ġconsecutive": 6874,
      "Ġrepublicans": 6875,
      "grade": 6876,
      "Ġclay": 6877,
      "rat": 6878,
      "Ġparalle": 6879,
      "Ġregularly": 6880,
      "Ġdublin": 6881,
      "Ġtranslated": 6882,
      "Ġdivisions": 6883,
      "Ġderived": 6884,
      "Ġjoining": 6885,
      "Ðº": 6886,
      "Ġflower": 6887,
      "Ġprocesses": 6888,
      "finals": 6889,
      "acent": 6890,
      "Ġryan": 6891,
      "Ġhelping": 6892,
      "Ġsymph": 6893,
      "Ġwalker": 6894,
      "Ġcolumn": 6895,
      "Ġceo": 6896,
      "Ġpel": 6897,
      "Ġsteps": 6898,
      "Ġwants": 6899,
      "rated": 6900,
      "Ġfavour": 6901,
      "Ġveget": 6902,
      "Ġbeet": 6903,
      "Ġmalaysia": 6904,
      "Ġduty": 6905,
      "veland": 6906,
      "ads": 6907,
      "Ġpersons": 6908,
      "urt": 6909,
      "Ġpainters": 6910,
      "Ġinvolving": 6911,
      "contin": 6912,
      "Ġfinishing": 6913,
      "Ġdepending": 6914,
      "owned": 6915,
      "Ġtamil": 6916,
      "73": 6917,
      "Ġreturns": 6918,
      "Ġclients": 6919,
      "Ġtrophy": 6920,
      "Ġcounties": 6921,
      "Ġms": 6922,
      "vious": 6923,
      "yers": 6924,
      "Ġtouchdown": 6925,
      "Ġlanc": 6926,
      "Ġtypical": 6927,
      "aust": 6928,
      "Ġclosely": 6929,
      "issance": 6930,
      "Ġinjured": 6931,
      "Ġcontained": 6932,
      "Ġrecipients": 6933,
      "ommod": 6934,
      "Ġbutter": 6935,
      "Ġdelivery": 6936,
      "Ġseed": 6937,
      "Ġinfluenced": 6938,
      "Ġafghan": 6939,
      "asts": 6940,
      "itter": 6941,
      "Ġedited": 6942,
      "aked": 6943,
      "Ġrelief": 6944,
      "Ġhaz": 6945,
      "Ġbattery": 6946,
      "Ġgast": 6947,
      "Ġlearned": 6948,
      "Ġlakes": 6949,
      "Ġhollywood": 6950,
      "Ġreaching": 6951,
      "istol": 6952,
      "Ġcontrolled": 6953,
      "Ġdisney": 6954,
      "Ġalco": 6955,
      "ucks": 6956,
      "Ġgone": 6957,
      "1997": 6958,
      "idden": 6959,
      "Ġvenez": 6960,
      "Ġanna": 6961,
      "Ġrooms": 6962,
      "Ġdrag": 6963,
      "Ġphotography": 6964,
      "Ġcoc": 6965,
      "Ġcolour": 6966,
      "Ġaccommod": 6967,
      "Ġswimming": 6968,
      "cr": 6969,
      "oen": 6970,
      "inter": 6971,
      "Ġequival": 6972,
      "Ġjordan": 6973,
      "Ġjoy": 6974,
      "Ġminute": 6975,
      "cd": 6976,
      "Ġoccas": 6977,
      "Ġcorporate": 6978,
      "Ġearn": 6979,
      "Ġpasses": 6980,
      "ocated": 6981,
      "ikh": 6982,
      "Ġtow": 6983,
      "Ġcontributions": 6984,
      "former": 6985,
      "Ġmail": 6986,
      "chel": 6987,
      "opter": 6988,
      "Ġinspe": 6989,
      "Ġmarkets": 6990,
      "Ġedinburgh": 6991,
      "Ġbund": 6992,
      "who": 6993,
      "Ġsubstant": 6994,
      "Ġwick": 6995,
      "Ġaspects": 6996,
      "Ġinterpret": 6997,
      "Ġjenn": 6998,
      "Ġparticipate": 6999,
      "Ġlock": 7000,
      "Ġlandscape": 7001,
      "Ġheavily": 7002,
      "foot": 7003,
      "ĠâĢ¢": 7004,
      "Ġproducing": 7005,
      "ooth": 7006,
      "Ġflowers": 7007,
      "Ġrating": 7008,
      "Ġvary": 7009,
      "Ġatlanta": 7010,
      "ographical": 7011,
      "ailand": 7012,
      "usal": 7013,
      "olo": 7014,
      "Ġ1890": 7015,
      "Ġtech": 7016,
      "Ġtwin": 7017,
      "Ġjohann": 7018,
      "Ġlawrence": 7019,
      "Ġchor": 7020,
      "Ġoperate": 7021,
      "Ġjobs": 7022,
      "Ġcolleges": 7023,
      "ht": 7024,
      "song": 7025,
      "rage": 7026,
      "df": 7027,
      "Ġric": 7028,
      "mic": 7029,
      "Ġmaur": 7030,
      "Ġsubsid": 7031,
      "Ġalfred": 7032,
      "cycl": 7033,
      "Ġcapture": 7034,
      "Ġstring": 7035,
      "69": 7036,
      "Ġsoundtrack": 7037,
      "mel": 7038,
      "Ġbin": 7039,
      "Ġprepared": 7040,
      "nan": 7041,
      "Ġutah": 7042,
      "oa": 7043,
      "Ġadding": 7044,
      "Ġmerged": 7045,
      "ders": 7046,
      "Ġthinking": 7047,
      "Ġstands": 7048,
      "enh": 7049,
      "orph": 7050,
      "Ġcruc": 7051,
      "Ġassault": 7052,
      "Ġcontra": 7053,
      "iki": 7054,
      "à¸": 7055,
      "Ġspiritual": 7056,
      "Ġlooks": 7057,
      "Ġdelivered": 7058,
      "Ġalexand": 7059,
      "Ġyourself": 7060,
      "Ġhired": 7061,
      "vest": 7062,
      "Ġdvd": 7063,
      "Ġdecade": 7064,
      "music": 7065,
      "Ġplatforms": 7066,
      "borough": 7067,
      "Ġobserved": 7068,
      "Ġcul": 7069,
      "phone": 7070,
      "Ġproducers": 7071,
      "Ġdelay": 7072,
      "Ġorthodox": 7073,
      "chang": 7074,
      "Ġpenins": 7075,
      "itals": 7076,
      "etime": 7077,
      "Ġmagazines": 7078,
      "Ġrick": 7079,
      "Ġvictims": 7080,
      "Ġmi": 7081,
      "fast": 7082,
      "ayan": 7083,
      "Ġfantasy": 7084,
      "Ġshore": 7085,
      "Ġancest": 7086,
      "name": 7087,
      "Ġcircle": 7088,
      "ials": 7089,
      "Ġcoastal": 7090,
      "Ġshah": 7091,
      "Ġwarri": 7092,
      "Ġ39": 7093,
      "Ġcleveland": 7094,
      "Ġvert": 7095,
      "ception": 7096,
      "Ġmoths": 7097,
      "abilities": 7098,
      "oria": 7099,
      "Ġdesigner": 7100,
      "iti": 7101,
      "Ġbelgian": 7102,
      "Ġmaintained": 7103,
      "oyd": 7104,
      "Ġremix": 7105,
      "Ġstating": 7106,
      "bas": 7107,
      "Ġinner": 7108,
      "Ġlegislation": 7109,
      "Ġkra": 7110,
      "Ġtact": 7111,
      "igue": 7112,
      "ifer": 7113,
      "naissance": 7114,
      "Ġaccounts": 7115,
      "Ġlanding": 7116,
      "Ġroger": 7117,
      "Ġauthors": 7118,
      "Ġsinging": 7119,
      "oker": 7120,
      "Ġlod": 7121,
      "Ġwet": 7122,
      "Ġmerc": 7123,
      "Ġgymn": 7124,
      "Ġ1906": 7125,
      "aded": 7126,
      "Ġsignificantly": 7127,
      "Ġbacking": 7128,
      "seud": 7129,
      "Ġfinland": 7130,
      "Ġknew": 7131,
      "Ġ1905": 7132,
      "ef": 7133,
      "Ġmouth": 7134,
      "Ġjunction": 7135,
      "Ġheads": 7136,
      "ocol": 7137,
      "Ġwarm": 7138,
      "Ġrig": 7139,
      "including": 7140,
      "Ġrac": 7141,
      "Ġelder": 7142,
      "Ġlatest": 7143,
      "Ġdowntown": 7144,
      "Ġpatient": 7145,
      "Ġhunter": 7146,
      "Ġgrounds": 7147,
      "Ġfoss": 7148,
      "Ġincorpor": 7149,
      "Ġnom": 7150,
      "power": 7151,
      "bul": 7152,
      "Ġghost": 7153,
      "Ġcompilation": 7154,
      "1990": 7155,
      "Ġresigned": 7156,
      "Ġ1909": 7157,
      "Ġdiocese": 7158,
      "Ġinse": 7159,
      "Ġnetworks": 7160,
      "Ġbreed": 7161,
      "Ġsubstit": 7162,
      "Ġyoutube": 7163,
      "Ġrunner": 7164,
      "Ġtrading": 7165,
      "Ġstrategic": 7166,
      "Ġstages": 7167,
      "Ġrum": 7168,
      "atically": 7169,
      "ige": 7170,
      "world": 7171,
      "--": 7172,
      "free": 7173,
      "Ġcompete": 7174,
      "Ġ1907": 7175,
      "Ġfruit": 7176,
      "Ġthailand": 7177,
      "Ġcomponents": 7178,
      "Ġsections": 7179,
      "Ġreput": 7180,
      "Ġyan": 7181,
      "Ġcryst": 7182,
      "liest": 7183,
      "Ġadapted": 7184,
      "Ġadjacent": 7185,
      "Ġvirtual": 7186,
      "Ġwinds": 7187,
      "adi": 7188,
      "Ġinhabitants": 7189,
      "antly": 7190,
      "eed": 7191,
      "Ġrevol": 7192,
      "Ġchallenges": 7193,
      "\").": 7194,
      "Ġcomprehens": 7195,
      "Ġrebu": 7196,
      "1996": 7197,
      "Ġsingh": 7198,
      "million": 7199,
      "Ġgather": 7200,
      "Ġreaction": 7201,
      "cons": 7202,
      "Ġmack": 7203,
      "Ġpittsburgh": 7204,
      "Ġatm": 7205,
      "gbt": 7206,
      "Ġcancell": 7207,
      "Ġmargaret": 7208,
      "Ġvisitors": 7209,
      "Ġwire": 7210,
      "Ġpale": 7211,
      "Ġmode": 7212,
      "Ġisol": 7213,
      "Ġbringing": 7214,
      "Ġscheme": 7215,
      "Ġthick": 7216,
      "otte": 7217,
      "know": 7218,
      "she": 7219,
      "Ġpant": 7220,
      "Ġoffensive": 7221,
      "nie": 7222,
      "enz": 7223,
      "Ġsocialist": 7224,
      "othes": 7225,
      "nia": 7226,
      "Ġjournalists": 7227,
      "Ġswitch": 7228,
      "Ġcharged": 7229,
      "Ġdefensive": 7230,
      "lock": 7231,
      "lie": 7232,
      "fir": 7233,
      "apolis": 7234,
      "rix": 7235,
      "Ġmorgan": 7236,
      "Ġconsisting": 7237,
      "heastern": 7238,
      "Ġserge": 7239,
      "Ġuniverse": 7240,
      "timore": 7241,
      "Ġdistributed": 7242,
      "low": 7243,
      "Ġmathematics": 7244,
      "1995": 7245,
      "Ġadventure": 7246,
      "Ġcriticism": 7247,
      "Ġliga": 7248,
      "Ġfranco": 7249,
      "Ġproved": 7250,
      "Ġcomposers": 7251,
      "Ġseattle": 7252,
      "Ġdescribes": 7253,
      "Ġadjust": 7254,
      "sr": 7255,
      "ords": 7256,
      "Ġhud": 7257,
      "Ġrice": 7258,
      "Ġartistic": 7259,
      "may": 7260,
      "Ġue": 7261,
      "cts": 7262,
      "Ġsurgery": 7263,
      "Ġconcluded": 7264,
      "Ġai": 7265,
      "Ġinstruments": 7266,
      "Ġpoems": 7267,
      "Ġlinked": 7268,
      "Ġchose": 7269,
      "Ġagencies": 7270,
      "Ġbruce": 7271,
      "Ġcommissioner": 7272,
      "Ġresolution": 7273,
      "Ġpeters": 7274,
      "Ġpanel": 7275,
      "Ġchanging": 7276,
      "Ġexactly": 7277,
      "gow": 7278,
      "Ġprocessing": 7279,
      "Ġtip": 7280,
      "enses": 7281,
      "Ġopposite": 7282,
      "Ġjuris": 7283,
      "Ġpharm": 7284,
      "Ġmuseums": 7285,
      "Ġsaints": 7286,
      "Ġsevere": 7287,
      "Ġlicense": 7288,
      "Ġguine": 7289,
      "Ġpure": 7290,
      "Ġargued": 7291,
      "Ġcaught": 7292,
      "pie": 7293,
      "Ġtheore": 7294,
      "Ġ1904": 7295,
      "Ġaccused": 7296,
      "Ġvacc": 7297,
      "Ġsubmar": 7298,
      "abled": 7299,
      "Ġzero": 7300,
      "Ġrepeated": 7301,
      "Ġhungary": 7302,
      "Ġenroll": 7303,
      "fection": 7304,
      "Ġsurf": 7305,
      "Ġemployment": 7306,
      "Ġgardens": 7307,
      "Ġasc": 7308,
      "Ġvenezuel": 7309,
      "Ġroutes": 7310,
      "Ġyug": 7311,
      "Ġenforce": 7312,
      "rises": 7313,
      "Ġkennedy": 7314,
      "Ġreplacement": 7315,
      "Ġromania": 7316,
      "Ġsoil": 7317,
      "Ġkelly": 7318,
      "Ġromantic": 7319,
      "Ġkos": 7320,
      "Ġexpression": 7321,
      "ribute": 7322,
      "Ġmanus": 7323,
      "Ġfrag": 7324,
      "Ġfixed": 7325,
      "Ġunderground": 7326,
      "Ġdatabase": 7327,
      "Ġ;": 7328,
      "Ġmonaster": 7329,
      "Ġrepair": 7330,
      "Ġages": 7331,
      "Ġevil": 7332,
      "Ġrib": 7333,
      "Ġpassengers": 7334,
      "Ġnev": 7335,
      "Ġrelationships": 7336,
      "ando": 7337,
      "Ġaccompl": 7338,
      "Ġdamaged": 7339,
      "Ġrussell": 7340,
      "Ġindustries": 7341,
      "iac": 7342,
      "ded": 7343,
      "Ġpayment": 7344,
      "person": 7345,
      "Ġtack": 7346,
      "Ġnewspapers": 7347,
      "Ġnotice": 7348,
      "Ġtechnologies": 7349,
      "oust": 7350,
      "hand": 7351,
      "Ġbonus": 7352,
      "Ġflav": 7353,
      ")\"": 7354,
      "Ġgenera": 7355,
      "Ġhabitat": 7356,
      "Ġum": 7357,
      "Ġlgbt": 7358,
      "Ġdoubles": 7359,
      "Ġrevival": 7360,
      "Ġsuit": 7361,
      "Ġbrick": 7362,
      "Ġstret": 7363,
      "Ġfib": 7364,
      "Ġresort": 7365,
      "soft": 7366,
      "mouth": 7367,
      "Ġclick": 7368,
      "Ġneighbour": 7369,
      "stit": 7370,
      "intend": 7371,
      "Ġvul": 7372,
      "Ġweak": 7373,
      "Ġ41": 7374,
      "cor": 7375,
      "Ġminimum": 7376,
      "Ġrenov": 7377,
      "Ġsuperior": 7378,
      "Ġvoting": 7379,
      "Ġadvice": 7380,
      "Ġbaltimore": 7381,
      "how": 7382,
      "Ġstrip": 7383,
      "Ġwait": 7384,
      "Ġvik": 7385,
      "Ġwaste": 7386,
      "master": 7387,
      "Ġseek": 7388,
      "Ġserbian": 7389,
      "Ġmps": 7390,
      "Ġphotos": 7391,
      "Ġdismiss": 7392,
      "Ġhampshire": 7393,
      "Ġparticipants": 7394,
      "Ġhab": 7395,
      "Ġtests": 7396,
      "Ġdiscography": 7397,
      "Ġdrew": 7398,
      "uda": 7399,
      "Ġdrawn": 7400,
      "Ġelectrical": 7401,
      "Ġhurric": 7402,
      "Ġscholarship": 7403,
      "Ġmargin": 7404,
      "break": 7405,
      "Ġdegrees": 7406,
      "Ġwedding": 7407,
      "Ġpic": 7408,
      "Ġattached": 7409,
      "uster": 7410,
      "Ġottoman": 7411,
      "ÃĹ": 7412,
      "Ġvolley": 7413,
      "Ġhonorary": 7414,
      "Ġruled": 7415,
      "resents": 7416,
      "Ġseeing": 7417,
      "boards": 7418,
      "Ġturns": 7419,
      "Ġcler": 7420,
      "Ġromanian": 7421,
      "Ġaustin": 7422,
      "Ġnan": 7423,
      "esh": 7424,
      "cur": 7425,
      "Ġexcellent": 7426,
      "Ġidentify": 7427,
      "Ġchristopher": 7428,
      "origin": 7429,
      "esc": 7430,
      "Ġdefunct": 7431,
      "Ġexport": 7432,
      "fted": 7433,
      "zi": 7434,
      "Ġpseud": 7435,
      "Ġarn": 7436,
      "Ġsut": 7437,
      "Ġfranchise": 7438,
      "Ġsounds": 7439,
      "unction": 7440,
      "Ġmys": 7441,
      "Ġcurt": 7442,
      "Ġpraised": 7443,
      "sea": 7444,
      "2020": 7445,
      "ãĤ": 7446,
      "Ġrevenue": 7447,
      "pres": 7448,
      "Ġ55": 7449,
      "Ġpretty": 7450,
      "Ġideal": 7451,
      "aware": 7452,
      "Ġpleas": 7453,
      "Ġcoaching": 7454,
      "chell": 7455,
      "ello": 7456,
      "Ġcorrupt": 7457,
      "van": 7458,
      "Ġmaine": 7459,
      "Ġmeanwhile": 7460,
      "Ġmarie": 7461,
      "ovo": 7462,
      "Ġpremiered": 7463,
      "Ġgulf": 7464,
      "fr": 7465,
      "Ġdesert": 7466,
      "Ġmovies": 7467,
      "Ġsarah": 7468,
      "Ġnord": 7469,
      "Ġmoder": 7470,
      "fo": 7471,
      "onom": 7472,
      "Ġcous": 7473,
      "atherine": 7474,
      "Ġwish": 7475,
      "rele": 7476,
      "Ġtalking": 7477,
      "Ġvalid": 7478,
      "Ġclinical": 7479,
      "Ġrhyth": 7480,
      "gate": 7481,
      "Ġfavorite": 7482,
      "Ġadvertising": 7483,
      "Ġridge": 7484,
      "Ġ1901": 7485,
      "Ġhttps": 7486,
      "Ġsigns": 7487,
      "Ġ1903": 7488,
      "Ġliv": 7489,
      "Ġprisoners": 7490,
      "Ġagree": 7491,
      "election": 7492,
      "cular": 7493,
      "Ġ1880": 7494,
      "Ġdallas": 7495,
      "Ġmanner": 7496,
      "Ġbattles": 7497,
      "Ġkarl": 7498,
      "Ġcole": 7499,
      "page": 7500,
      "Ġspeaker": 7501,
      "Ġcenters": 7502,
      "best": 7503,
      "Ġcrossing": 7504,
      "Ġfinnish": 7505,
      "Ġstewart": 7506,
      "oom": 7507,
      "Ġstro": 7508,
      "alia": 7509,
      "cou": 7510,
      "Ġski": 7511,
      "Ġreli": 7512,
      "Ġrepresents": 7513,
      "Ġcomed": 7514,
      "Ġbriefly": 7515,
      "emen": 7516,
      "Ġvenues": 7517,
      "Ġmonarch": 7518,
      "Ġlose": 7519,
      "dan": 7520,
      "Ġfishing": 7521,
      "oda": 7522,
      "Ġstopped": 7523,
      "Ġviolin": 7524,
      "Ġbour": 7525,
      "Ġregarded": 7526,
      "Ġprohib": 7527,
      "Ġ43": 7528,
      "Ġnas": 7529,
      "Ġbalance": 7530,
      "Ġpreserv": 7531,
      "Ġkeeping": 7532,
      "ario": 7533,
      "Ġleban": 7534,
      "Ġinstru": 7535,
      "Ġpossess": 7536,
      "Ġforum": 7537,
      "Ġcampbell": 7538,
      "Ġargentine": 7539,
      "Ġlaboratory": 7540,
      "Ġdragon": 7541,
      "Ġexplos": 7542,
      "Ġtap": 7543,
      "arn": 7544,
      "Ġassass": 7545,
      "Ġillegal": 7546,
      "1994": 7547,
      "Ġmak": 7548,
      "Ġambassador": 7549,
      "Ġangl": 7550,
      "Ġlud": 7551,
      "Ġnelson": 7552,
      "rist": 7553,
      "ashi": 7554,
      "Ġbridges": 7555,
      "Ġremove": 7556,
      "leans": 7557,
      "Ġglas": 7558,
      "arest": 7559,
      "Ġadults": 7560,
      "Ġinstance": 7561,
      "Ġ1902": 7562,
      "Ġcable": 7563,
      "Ġtechnique": 7564,
      "uable": 7565,
      "Ġsupposed": 7566,
      "Ġshopping": 7567,
      "cription": 7568,
      "Ġgam": 7569,
      "Ġshit": 7570,
      "Ġchannels": 7571,
      "Ġvienna": 7572,
      "inos": 7573,
      "Ġlan": 7574,
      "Ġencoun": 7575,
      "Ġmasters": 7576,
      "rh": 7577,
      "pp": 7578,
      "Ġadams": 7579,
      "Ġcolony": 7580,
      "Ġmanuscript": 7581,
      "Ġride": 7582,
      "Ġbact": 7583,
      "uki": 7584,
      "Ġeffectively": 7585,
      "iah": 7586,
      "aa": 7587,
      "eler": 7588,
      "Ġchildhood": 7589,
      "inations": 7590,
      "Ġownership": 7591,
      "Ġsequence": 7592,
      "Ġjimmy": 7593,
      "Ġdifferences": 7594,
      "Ġdomain": 7595,
      "Ġbible": 7596,
      "Ġsatellite": 7597,
      "Ġtak": 7598,
      "Ġdecisions": 7599,
      "Ġcloud": 7600,
      "Ġcredits": 7601,
      "Ġprefecture": 7602,
      "Ġflex": 7603,
      "Ġbio": 7604,
      "elli": 7605,
      "Ġleaf": 7606,
      "Ġmanage": 7607,
      "Ġlac": 7608,
      "Ġprel": 7609,
      "Ġmarshall": 7610,
      "Ġrecommended": 7611,
      "Ġnorman": 7612,
      "Ġthompson": 7613,
      "Ġrescue": 7614,
      "Ġchand": 7615,
      "Ġinitiative": 7616,
      "Ġspeaking": 7617,
      "Ġearliest": 7618,
      "Ġprices": 7619,
      "Ġhorror": 7620,
      "Ġsociet": 7621,
      "onomy": 7622,
      "Ġhunting": 7623,
      "Ġsympt": 7624,
      "Ġchat": 7625,
      "orship": 7626,
      "Ġranking": 7627,
      "Ġatmosp": 7628,
      "Ġtob": 7629,
      "tha": 7630,
      "Ġneut": 7631,
      "rate": 7632,
      "nat": 7633,
      "Ġshipping": 7634,
      "oz": 7635,
      "Ġ150": 7636,
      "mingham": 7637,
      "Ġsisters": 7638,
      "Ġwes": 7639,
      "Ġperc": 7640,
      "Ġuseful": 7641,
      "Ġfeeling": 7642,
      "Ġtourism": 7643,
      "Ġlawyers": 7644,
      "Ġsult": 7645,
      "aph": 7646,
      "Ġanch": 7647,
      "Ġsummary": 7648,
      "Ġchess": 7649,
      "Ġther": 7650,
      "thro": 7651,
      "Ġpainted": 7652,
      "ilst": 7653,
      "1993": 7654,
      "bishop": 7655,
      "Ġwright": 7656,
      "Ġhub": 7657,
      "gue": 7658,
      "Ġdivor": 7659,
      "Ġorganis": 7660,
      "Ġhistorians": 7661,
      "Ġrising": 7662,
      "Ġrefle": 7663,
      "urg": 7664,
      "Ġunus": 7665,
      "Ġcarib": 7666,
      "Ġcord": 7667,
      "Ġbangladesh": 7668,
      "Ġcarrying": 7669,
      "Ġcoalition": 7670,
      "Ġnotably": 7671,
      "Ġoperational": 7672,
      "Ġhappen": 7673,
      "Ġtie": 7674,
      "bach": 7675,
      "Ġefficient": 7676,
      "Ġgrace": 7677,
      "Ġmaybe": 7678,
      "Ġterritories": 7679,
      "Ġcommune": 7680,
      "Ġraise": 7681,
      "Ġliverpool": 7682,
      "ographics": 7683,
      "pen": 7684,
      "Ġja": 7685,
      "Ġted": 7686,
      "aman": 7687,
      "Ġlosses": 7688,
      "Ġyugoslav": 7689,
      "ahn": 7690,
      "high": 7691,
      "Ġtab": 7692,
      "1992": 7693,
      "Ġassign": 7694,
      "Ġpoets": 7695,
      "fi": 7696,
      "final": 7697,
      "Ġshield": 7698,
      "profit": 7699,
      "Ġdepression": 7700,
      "Ġwasn": 7701,
      "Ġvas": 7702,
      "Ġvisiting": 7703,
      "Ġbilly": 7704,
      "Ġcrash": 7705,
      "Ġdisappe": 7706,
      "Ġbenn": 7707,
      "Ġsessions": 7708,
      "verty": 7709,
      "Ġdebate": 7710,
      "emble": 7711,
      "Ġmichel": 7712,
      "Ġprompt": 7713,
      "Ġplane": 7714,
      "Ġcompetitive": 7715,
      "Ġnash": 7716,
      "Ġrevolutionary": 7717,
      "Ġpeninsula": 7718,
      "su": 7719,
      "oga": 7720,
      "Ġdh": 7721,
      "Ġhonors": 7722,
      "Ġresign": 7723,
      "note": 7724,
      "Ġtries": 7725,
      "Ġregul": 7726,
      "Ġsupple": 7727,
      "Ġbrooklyn": 7728,
      "vere": 7729,
      "Ġcrimes": 7730,
      "Ġvolleyball": 7731,
      "Ġvib": 7732,
      "Ġcomprehensive": 7733,
      "bean": 7734,
      "Ġafford": 7735,
      "Ġni": 7736,
      "Ġkum": 7737,
      "Ġweekend": 7738,
      "Ġfranklin": 7739,
      "Ġfriendly": 7740,
      "Ġ47": 7741,
      "Ġshock": 7742,
      "Ġ46": 7743,
      "rons": 7744,
      "Ġagents": 7745,
      "Ġsurvived": 7746,
      "Ġexecuted": 7747,
      "aste": 7748,
      "Ġhearing": 7749,
      "Ġincumb": 7750,
      "Ġprovision": 7751,
      "Ġsprings": 7752,
      "Ġdetailed": 7753,
      "Ġtong": 7754,
      "ceived": 7755,
      "Ġparaly": 7756,
      "Ġintegrated": 7757,
      "Ġfilled": 7758,
      "fil": 7759,
      "mid": 7760,
      "Ġtalent": 7761,
      "Ġduties": 7762,
      "Ġeditions": 7763,
      "Ġadmitted": 7764,
      "Ġelig": 7765,
      "Ġmeets": 7766,
      "Ġgraham": 7767,
      "Ġpersonality": 7768,
      "Ġpoverty": 7769,
      "Ġdakota": 7770,
      "Ġian": 7771,
      "Ġwag": 7772,
      "Ġrepro": 7773,
      "Ġhob": 7774,
      "Ġappointment": 7775,
      "....": 7776,
      "Ġseeking": 7777,
      "Ġtort": 7778,
      "Ġlocality": 7779,
      "Ġoperates": 7780,
      "commun": 7781,
      "Ġdrugs": 7782,
      "Ġmars": 7783,
      "Ġ52": 7784,
      "Î±": 7785,
      "Ġcapable": 7786,
      "Ġequivalent": 7787,
      "ranean": 7788,
      "Ġbernard": 7789,
      "Ġindu": 7790,
      "otes": 7791,
      "Ġhyper": 7792,
      "Ġdaughters": 7793,
      "Ġske": 7794,
      "Ġgross": 7795,
      "Ġparallel": 7796,
      "Ġscand": 7797,
      "Ġcarlos": 7798,
      "Ġorleans": 7799,
      "Ġdemographics": 7800,
      "Ġstanley": 7801,
      "Ġgary": 7802,
      "gie": 7803,
      "Ġsudden": 7804,
      "away": 7805,
      "Ġfacebook": 7806,
      "Ġrobinson": 7807,
      "Ġgill": 7808,
      "Ġfifa": 7809,
      "Ġbom": 7810,
      "Ġportland": 7811,
      "Ġcarter": 7812,
      "Ġsubjects": 7813,
      "Ġrejected": 7814,
      "Ġtribe": 7815,
      "Ġfill": 7816,
      "iop": 7817,
      "oka": 7818,
      "rock": 7819,
      "ĪĴ": 7820,
      "Ġwhilst": 7821,
      "cat": 7822,
      "Ġrestoration": 7823,
      "Ġtemporary": 7824,
      "Ġorig": 7825,
      "Ġsoldier": 7826,
      "Ġabc": 7827,
      "Ġjason": 7828,
      "Ġteach": 7829,
      "abet": 7830,
      "erbai": 7831,
      "Ġpoem": 7832,
      "Ġpreced": 7833,
      "Ġresearchers": 7834,
      "attan": 7835,
      "Ġsuicide": 7836,
      "Ġraw": 7837,
      "Ġoblast": 7838,
      "gun": 7839,
      "Ġbears": 7840,
      "Ġcharter": 7841,
      "anny": 7842,
      "Ġspend": 7843,
      "inae": 7844,
      "Ġspaces": 7845,
      "Ġgift": 7846,
      "uccess": 7847,
      "Ġmurray": 7848,
      "Ġfasc": 7849,
      "Ġtruck": 7850,
      "oly": 7851,
      "Ġconven": 7852,
      "Ġcontroversy": 7853,
      "Ġmorris": 7854,
      "Ġkilomet": 7855,
      "Ġpassion": 7856,
      "Ġtourist": 7857,
      "oked": 7858,
      "reprene": 7859,
      "Ġpian": 7860,
      "Ġfilmography": 7861,
      "Ġarrival": 7862,
      "âĢĿ.": 7863,
      "Ġmagnet": 7864,
      "Ġfriday": 7865,
      "Ġstood": 7866,
      "Ġbaker": 7867,
      "Ġpink": 7868,
      "Ġprogressive": 7869,
      "igo": 7870,
      "Ġgur": 7871,
      "card": 7872,
      "Ġreleg": 7873,
      "Ġracial": 7874,
      "Ġwildlife": 7875,
      "Ġcovering": 7876,
      "pop": 7877,
      "Ġsuggests": 7878,
      "orf": 7879,
      "othe": 7880,
      "Ġbog": 7881,
      "Ġexercise": 7882,
      "Ġtorn": 7883,
      "Ġinteresting": 7884,
      "Ġbirmingham": 7885,
      "Ġtherapy": 7886,
      "Ġmath": 7887,
      "Ġcongreg": 7888,
      "Ġsmooth": 7889,
      "Ġpregn": 7890,
      "Ġmanaging": 7891,
      "Ġlegislature": 7892,
      "iors": 7893,
      "Ġmck": 7894,
      "Ġappropriate": 7895,
      "Ġflash": 7896,
      "Ġscr": 7897,
      "Ġthirty": 7898,
      "rus": 7899,
      "Ġenh": 7900,
      "Ġtoy": 7901,
      "Ġnazi": 7902,
      "Ġosc": 7903,
      "Ġpopularity": 7904,
      "Ġconcrete": 7905,
      "Ġadopt": 7906,
      "Ġtrig": 7907,
      "ois": 7908,
      "Ġgear": 7909,
      "Ġcrypt": 7910,
      "wright": 7911,
      "Ġsubsc": 7912,
      "Ġfired": 7913,
      "Ġcolors": 7914,
      "Ġ1898": 7915,
      "hai": 7916,
      "Ġdefinition": 7917,
      "Ġarranged": 7918,
      "Ġhundreds": 7919,
      "Ġvit": 7920,
      "Ġwake": 7921,
      "Ġenhance": 7922,
      "Ġcatch": 7923,
      "Ġmerchant": 7924,
      "Ġoutput": 7925,
      "ussion": 7926,
      "Ġholiday": 7927,
      "Ġcavalry": 7928,
      "jar": 7929,
      "Ġsimpl": 7930,
      "Ġreputation": 7931,
      "Ġble": 7932,
      "Ġbishops": 7933,
      "ãģ": 7934,
      "Ġlisten": 7935,
      "Ġguards": 7936,
      "Ġassets": 7937,
      "Ġmassive": 7938,
      "Ġjohnny": 7939,
      "Ġimprison": 7940,
      "ailed": 7941,
      "Ġreun": 7942,
      "Ġintellect": 7943,
      "alt": 7944,
      "Ġrecru": 7945,
      "Ġdemocracy": 7946,
      "Ġtransit": 7947,
      "Ġmovements": 7948,
      "Ġclient": 7949,
      "rimin": 7950,
      "Ġalleg": 7951,
      "Ġacquis": 7952,
      "olid": 7953,
      "Ġinher": 7954,
      "Ġivan": 7955,
      "asi": 7956,
      "Ġprinciples": 7957,
      "Ġrandom": 7958,
      "Ġhunt": 7959,
      "Ġnoble": 7960,
      "Ġcontinuing": 7961,
      "Ġ51": 7962,
      "Ġentreprene": 7963,
      "family": 7964,
      "boy": 7965,
      "Ġeug": 7966,
      "Ġbarn": 7967,
      "Ġlion": 7968,
      "Ġneck": 7969,
      "Ġhonour": 7970,
      "Ġterminal": 7971,
      "Ġheaded": 7972,
      "Ġmediter": 7973,
      "Ġparticipation": 7974,
      "Ġwooden": 7975,
      "Ġmatthew": 7976,
      "Ġmeters": 7977,
      "Ġcoffee": 7978,
      "Ġmatters": 7979,
      "Ġmong": 7980,
      "urers": 7981,
      "cht": 7982,
      "Ġcircumst": 7983,
      "2021": 7984,
      "Ġextreme": 7985,
      "Ġinterv": 7986,
      "Ġazerbai": 7987,
      "osing": 7988,
      "Ġclassified": 7989,
      "Ġrico": 7990,
      "Ġspending": 7991,
      "bus": 7992,
      "trans": 7993,
      "Ġdebuted": 7994,
      "Ġgiant": 7995,
      "Ġchemistry": 7996,
      "ĉčĊ": 7997,
      "Ġregist": 7998,
      "Ġwounded": 7999,
      "Ġnigeria": 8000,
      "Ġig": 8001,
      "Ġdebt": 8002,
      "agh": 8003,
      "Ġreact": 8004,
      "Ġoccupation": 8005,
      "Ġjar": 8006,
      "Ġmini": 8007,
      "Ġaccompanied": 8008,
      "eta": 8009,
      "anim": 8010,
      "mund": 8011,
      "nell": 8012,
      "Ġlanka": 8013,
      "Ġarchive": 8014,
      "uble": 8015,
      "Ġactivist": 8016,
      "amental": 8017,
      "fiction": 8018,
      "ups": 8019,
      "Ġclimb": 8020,
      "py": 8021,
      "Ġgy": 8022,
      "cal": 8023,
      "Ġtriple": 8024,
      "oming": 8025,
      "iture": 8026,
      "hill": 8027,
      "Ġ1870": 8028,
      "Ġworship": 8029,
      "Ġcommem": 8030,
      "arus": 8031,
      "Ġexplained": 8032,
      "Ġalcohol": 8033,
      "ishment": 8034,
      "inum": 8035,
      "Ġclearly": 8036,
      "Ġdrawing": 8037,
      "tz": 8038,
      "iri": 8039,
      "Ġdenn": 8040,
      "Ġmonthly": 8041,
      "Ġconsumer": 8042,
      "Ġuefa": 8043,
      "illo": 8044,
      "Ġinjuries": 8045,
      "via": 8046,
      "fm": 8047,
      "Ġhoriz": 8048,
      "ashed": 8049,
      "Ġcharity": 8050,
      "Ġinqu": 8051,
      "Ġhosts": 8052,
      "Ġblind": 8053,
      "south": 8054,
      "Ġexperimental": 8055,
      "Ġsilent": 8056,
      "Ġencycl": 8057,
      "1991": 8058,
      "Ġmedals": 8059,
      "Ġcommunes": 8060,
      "Ġbenj": 8061,
      "Ġarchitectural": 8062,
      "Ġfol": 8063,
      "Ġtub": 8064,
      "Ġ1899": 8065,
      "Ġiranian": 8066,
      "Ġairlines": 8067,
      "Ġrelative": 8068,
      "apping": 8069,
      "Ġkath": 8070,
      "Ġposted": 8071,
      "ails": 8072,
      "oni": 8073,
      "Ġng": 8074,
      "Ġmold": 8075,
      "fts": 8076,
      "ivated": 8077,
      "Ġkun": 8078,
      "Ġrestored": 8079,
      "Ġdesire": 8080,
      "Ġoutdoor": 8081,
      "Ġshif": 8082,
      "Ġpierre": 8083,
      "Ġtied": 8084,
      "nik": 8085,
      "Ġsubur": 8086,
      "Ġog": 8087,
      "ishments": 8088,
      "ishers": 8089,
      "Ġsummit": 8090,
      "Ġyorkshire": 8091,
      "Ġnova": 8092,
      "utt": 8093,
      "Ġstyles": 8094,
      "Ġeighth": 8095,
      "Ã¦": 8096,
      "Ġtaxa": 8097,
      "Ġphoen": 8098,
      "Ġserbia": 8099,
      "fire": 8100,
      "Ġwarren": 8101,
      "Ġmachines": 8102,
      "Ġentering": 8103,
      "Ġbuffalo": 8104,
      "Ġforests": 8105,
      "Ġbuc": 8106,
      "using": 8107,
      "Ġcredited": 8108,
      "Ġrelevant": 8109,
      "Ġvessels": 8110,
      "Ġthousand": 8111,
      "Ġincreasingly": 8112,
      "Ġdelhi": 8113,
      "rs": 8114,
      "Ġthemes": 8115,
      "itely": 8116,
      "Ġnba": 8117,
      "rin": 8118,
      "Ġabuse": 8119,
      "nov": 8120,
      "oba": 8121,
      "Ġcrus": 8122,
      "Ġcited": 8123,
      "Ġhaven": 8124,
      "Ġsib": 8125,
      "Ġobvious": 8126,
      "Ġsupports": 8127,
      "Ġreconst": 8128,
      "Ġvoters": 8129,
      "Ġaren": 8130,
      "imens": 8131,
      "Ġbrands": 8132,
      "Ġegyptian": 8133,
      "Ġsurge": 8134,
      "Ġmarath": 8135,
      "Ġguil": 8136,
      "eas": 8137,
      "Ġmadrid": 8138,
      "agement": 8139,
      "Ġhealthy": 8140,
      "Ġabsor": 8141,
      "Ġmason": 8142,
      "Ġassumed": 8143,
      "anner": 8144,
      "Ġpc": 8145,
      "Ġmanh": 8146,
      "Ġallied": 8147,
      "Ġrecovery": 8148,
      "jab": 8149,
      "Ġeu": 8150,
      "Ġvaluable": 8151,
      "Ġdepth": 8152,
      "Ġacknow": 8153,
      "Ġtunnel": 8154,
      "Ġsignif": 8155,
      "Ġdescend": 8156,
      "Ġ|}": 8157,
      "Ġmeetings": 8158,
      "iden": 8159,
      "Ġhend": 8160,
      "1980": 8161,
      "uous": 8162,
      "Ġevans": 8163,
      "Ġ1896": 8164,
      "Ġexplore": 8165,
      "Ġprofessionals": 8166,
      "Ġconstruct": 8167,
      "Ġtill": 8168,
      "Ġjama": 8169,
      "Ġcoron": 8170,
      "Ġguitarist": 8171,
      "Ġmanga": 8172,
      "Ġfiled": 8173,
      "Ġfarmers": 8174,
      "Ġandy": 8175,
      "Ġbarry": 8176,
      "Ġsymphony": 8177,
      "idency": 8178,
      "Ġobtain": 8179,
      "Ġsig": 8180,
      "Ġmarit": 8181,
      "eenth": 8182,
      "Ġcommerce": 8183,
      "vol": 8184,
      "Ġbusinessman": 8185,
      "Ġhealthcare": 8186,
      "Ġpoc": 8187,
      "Ġchick": 8188,
      "Ġturning": 8189,
      "Ġapproval": 8190,
      "Ġafterwards": 8191,
      "ules": 8192,
      "Ġcod": 8193,
      "brid": 8194,
      "Ġorigins": 8195,
      "haw": 8196,
      "fare": 8197,
      "Ġplain": 8198,
      "Ġwalking": 8199,
      "Ġpractical": 8200,
      "Ġmissions": 8201,
      "Ġmediterranean": 8202,
      "Ġhighlight": 8203,
      "Ġindoor": 8204,
      "Ġquart": 8205,
      "Ġdna": 8206,
      "Ġcriticized": 8207,
      "iveness": 8208,
      "Ġvolumes": 8209,
      "Ġseparated": 8210,
      "Ð»": 8211,
      "Ġinterse": 8212,
      "Ġretained": 8213,
      "Ġcarp": 8214,
      "Ġdogs": 8215,
      "ture": 8216,
      "Ġhindu": 8217,
      "publ": 8218,
      "amps": 8219,
      "Ġwayne": 8220,
      "Ġnomination": 8221,
      "Ġtrap": 8222,
      "Ġcharlie": 8223,
      "%,": 8224,
      "Ġjurisd": 8225,
      "ictions": 8226,
      "Ġdangerous": 8227,
      "Ġgrown": 8228,
      "Ġgoth": 8229,
      "Ġanime": 8230,
      "Ġinnovation": 8231,
      "gener": 8232,
      "Ġghana": 8233,
      "Ġadaptation": 8234,
      "Ġparalymp": 8235,
      "mate": 8236,
      "Ġ1895": 8237,
      "Ġdefeating": 8238,
      "Ġtigers": 8239,
      "Ġfestivals": 8240,
      "listed": 8241,
      "Ġsultan": 8242,
      "Ġboss": 8243,
      "Ġ1897": 8244,
      "Ġsymptoms": 8245,
      "Ġrecept": 8246,
      "Ġbroadway": 8247,
      "Ġshares": 8248,
      "Ġpublisher": 8249,
      "Ġencyclop": 8250,
      "stan": 8251,
      "Ġknights": 8252,
      "Ġlingu": 8253,
      "dem": 8254,
      "first": 8255,
      "Ġliquid": 8256,
      "render": 8257,
      "Ġproposal": 8258,
      "Ġdual": 8259,
      "rose": 8260,
      "Ġbasin": 8261,
      "Ġportrait": 8262,
      "usalem": 8263,
      "1989": 8264,
      "Ġrifle": 8265,
      "holder": 8266,
      "ading": 8267,
      "Ġss": 8268,
      "Ġbarbara": 8269,
      "Ġdecline": 8270,
      "olia": 8271,
      "Ġhawaii": 8272,
      "Ġmig": 8273,
      "Ġlip": 8274,
      "Ġjosh": 8275,
      "Ġbenjamin": 8276,
      "issue": 8277,
      "Ġexception": 8278,
      "Ġforb": 8279,
      "Ġcounsel": 8280,
      "Ġnevada": 8281,
      "Ġ120": 8282,
      "Ġroughly": 8283,
      "Ġboundary": 8284,
      "Ġdiverse": 8285,
      "Ġchoir": 8286,
      "Ġmilan": 8287,
      "Ġstick": 8288,
      "ielder": 8289,
      "Ġcasual": 8290,
      "Ġrichmond": 8291,
      "Ġmechanical": 8292,
      "ulu": 8293,
      "Ġeleven": 8294,
      "Ġbic": 8295,
      "Ġplayoffs": 8296,
      "Ġglasgow": 8297,
      "Ġachievement": 8298,
      "Ġequipped": 8299,
      "Ġpole": 8300,
      "endar": 8301,
      "Ġstarred": 8302,
      "Ġphr": 8303,
      "Ġri": 8304,
      "Ġmills": 8305,
      "Ġunsuccess": 8306,
      "udes": 8307,
      "Ġpill": 8308,
      "Ġchi": 8309,
      "Ġfee": 8310,
      "writers": 8311,
      "Ġfrequency": 8312,
      "Ġfalse": 8313,
      "Ġperu": 8314,
      "Ġsatisf": 8315,
      "Ġcraft": 8316,
      "Ġenhan": 8317,
      "Ġfrances": 8318,
      "Ġpenalty": 8319,
      "Ġstruck": 8320,
      "Ġbirthday": 8321,
      "Ġconcerned": 8322,
      "story": 8323,
      "tan": 8324,
      "Ġgovernments": 8325,
      "fish": 8326,
      "Ġarchives": 8327,
      "Ġtreated": 8328,
      "aments": 8329,
      "Ġunless": 8330,
      "station": 8331,
      "Ġbil": 8332,
      "usa": 8333,
      "Ġvast": 8334,
      "lic": 8335,
      "Ġexperts": 8336,
      "Ġguinea": 8337,
      "Ġcosta": 8338,
      "child": 8339,
      "Ġfilmed": 8340,
      "Ġsegment": 8341,
      "donald": 8342,
      "Ġdiction": 8343,
      "Ġremark": 8344,
      "Ġresource": 8345,
      "Ġmitchell": 8346,
      "Ġwhereas": 8347,
      "Ġmonte": 8348,
      "Ġpron": 8349,
      "that": 8350,
      "Ġrit": 8351,
      "Ġindicate": 8352,
      "Ġlights": 8353,
      "Ġoverview": 8354,
      "bow": 8355,
      "Ġcock": 8356,
      "cour": 8357,
      "Ġcompetitors": 8358,
      "Ġillness": 8359,
      "Ġformally": 8360,
      "oples": 8361,
      "Ġpradesh": 8362,
      "Ġexcess": 8363,
      "Ġ54": 8364,
      "Ġpig": 8365,
      "Ġseeds": 8366,
      "Ġabbey": 8367,
      "Ġneither": 8368,
      "Ġeliminated": 8369,
      "Ġml": 8370,
      "roid": 8371,
      "Ġflows": 8372,
      "Ġserial": 8373,
      "Ġfacing": 8374,
      "Ġauto": 8375,
      "Ġalaska": 8376,
      "Ġcrowd": 8377,
      "Ġbranches": 8378,
      "Ġgiants": 8379,
      "Ġguer": 8380,
      "Ġrounds": 8381,
      "Ġforg": 8382,
      "type": 8383,
      "Ġenterprise": 8384,
      "alis": 8385,
      "Ġpon": 8386,
      "sup": 8387,
      "Ġcaribbean": 8388,
      "Ġtib": 8389,
      "Ġsv": 8390,
      "Ġstayed": 8391,
      "Ġretrie": 8392,
      "Ġgaz": 8393,
      "sters": 8394,
      "Ġsupporters": 8395,
      "Ġluis": 8396,
      "Ġstudying": 8397,
      "owski": 8398,
      "Ġscope": 8399,
      "Ġfiles": 8400,
      "Ġprinted": 8401,
      "Ġmarks": 8402,
      "Ġpsychology": 8403,
      "Ġrebell": 8404,
      "Ġkap": 8405,
      "gov": 8406,
      "Ġinspir": 8407,
      "Ġproof": 8408,
      "claimed": 8409,
      "Ġlag": 8410,
      "Ġsick": 8411,
      "Ġorganisations": 8412,
      "yon": 8413,
      "iko": 8414,
      "Ġbak": 8415,
      "Ġrailways": 8416,
      "Ġlicensed": 8417,
      "Ġintent": 8418,
      "Ġsurve": 8419,
      "Ġsigning": 8420,
      "couver": 8421,
      "keep": 8422,
      "Ġtransmission": 8423,
      "Ġvenue": 8424,
      "Ġversus": 8425,
      "Ġannounce": 8426,
      "Ġvancouver": 8427,
      "Ġclan": 8428,
      "Ġpeoples": 8429,
      "Ġvictorian": 8430,
      "Ġweapon": 8431,
      "Ġdiscussion": 8432,
      "istical": 8433,
      "Ġjury": 8434,
      "lington": 8435,
      "Ġcompens": 8436,
      "Ġafghanistan": 8437,
      "aj": 8438,
      "Ġpetro": 8439,
      "Ġinstallation": 8440,
      "Ġrobin": 8441,
      "Ġcomments": 8442,
      "Ġjerusalem": 8443,
      "Ġmartial": 8444,
      "Ġreporting": 8445,
      "Ġpush": 8446,
      "Ġyard": 8447,
      "Ġsuitable": 8448,
      "Ġ1860": 8449,
      "Ġ1893": 8450,
      "Ġjonathan": 8451,
      "Ġlav": 8452,
      "Ġmodified": 8453,
      "Ġyu": 8454,
      "Ġrangers": 8455,
      "gorith": 8456,
      "Ġundert": 8457,
      "Ġgif": 8458,
      "Ġsuccessor": 8459,
      "Ġinvolvement": 8460,
      "Ġcertific": 8461,
      "fly": 8462,
      "Ġreplacing": 8463,
      "Ġbelt": 8464,
      "=\"#": 8465,
      "graduate": 8466,
      "Ġstruggle": 8467,
      "named": 8468,
      "Ġcompletion": 8469,
      "stad": 8470,
      "Ġisa": 8471,
      "Ġbreaking": 8472,
      "braska": 8473,
      "Ġwang": 8474,
      "there": 8475,
      "Ġimmediate": 8476,
      "Ġroots": 8477,
      "inding": 8478,
      "Ġ56": 8479,
      "eper": 8480,
      "Ġsight": 8481,
      "Ġsporting": 8482,
      "Ġknows": 8483,
      "Ġrunners": 8484,
      "Ġactivists": 8485,
      "Ġstandings": 8486,
      "Ġelectricity": 8487,
      "Ġborders": 8488,
      "Ġfoster": 8489,
      "antine": 8490,
      "Ġparent": 8491,
      "Ġsufficient": 8492,
      "Ġremote": 8493,
      "Ġsuffering": 8494,
      "Ġalberta": 8495,
      "Ġimpress": 8496,
      "Ġongoing": 8497,
      "ski": 8498,
      "ÃŁ": 8499,
      "Ġfitz": 8500,
      "Ġblocks": 8501,
      "Ġhelic": 8502,
      "pin": 8503,
      "Ġalgorith": 8504,
      "Ġanimation": 8505,
      "Ġ1889": 8506,
      "Ġdiseases": 8507,
      "Ġsupplies": 8508,
      "Ġinfluential": 8509,
      "fers": 8510,
      "Ġslovak": 8511,
      "Ġpatterns": 8512,
      "orer": 8513,
      "Ġwaiting": 8514,
      "Ġarchbishop": 8515,
      "Ġdil": 8516,
      "Ġcooperation": 8517,
      "Ġvoy": 8518,
      "Ġaggreg": 8519,
      "si": 8520,
      "Ġwarner": 8521,
      "Ġlions": 8522,
      "Ġvisible": 8523,
      "making": 8524,
      "Ġmines": 8525,
      "Ġ1892": 8526,
      "maker": 8527,
      "Ġnit": 8528,
      "Ġindians": 8529,
      "Ġdoors": 8530,
      "Ġcurren": 8531,
      "folk": 8532,
      "Ġvlad": 8533,
      "far": 8534,
      "Ġstrict": 8535,
      "1988": 8536,
      "otype": 8537,
      "Ġmaps": 8538,
      "Ġthreatened": 8539,
      "Ġappearing": 8540,
      "Ġenforcement": 8541,
      "Ġalice": 8542,
      "Ġcontribution": 8543,
      "ivan": 8544,
      "def": 8545,
      "Ġvoiv": 8546,
      "Ġclothing": 8547,
      "Ġluther": 8548,
      "Ġscientist": 8549,
      "lee": 8550,
      "Ġkitchen": 8551,
      "cos": 8552,
      "Ġkay": 8553,
      "Ġlooked": 8554,
      "Ġcelebrated": 8555,
      "Ġ1894": 8556,
      "Ġouter": 8557,
      "anne": 8558,
      "dp": 8559,
      "Ġcompeting": 8560,
      "Ġguests": 8561,
      "case": 8562,
      "zes": 8563,
      "eton": 8564,
      "Ġvessel": 8565,
      "Ġrolling": 8566,
      "Ġ53": 8567,
      "Ġtribut": 8568,
      "Ġpercussion": 8569,
      "ivation": 8570,
      "tes": 8571,
      "ido": 8572,
      "Ġamendment": 8573,
      "Ġorganic": 8574,
      "Ġdecide": 8575,
      "Ġwilling": 8576,
      "Ġradical": 8577,
      "uration": 8578,
      "Ġsurviv": 8579,
      "Ġstim": 8580,
      "Ġhorses": 8581,
      "Ġstrongly": 8582,
      "Ġreleases": 8583,
      "phan": 8584,
      "Ġcircumstances": 8585,
      "tor": 8586,
      "Ġsharing": 8587,
      "iliar": 8588,
      "Ġmeat": 8589,
      "izer": 8590,
      "Ġstrategies": 8591,
      "Ġtrials": 8592,
      "Ġnur": 8593,
      "Ġbug": 8594,
      "Ġoccasionally": 8595,
      "Ġnebraska": 8596,
      "Ġkiss": 8597,
      "?\"": 8598,
      "Ġfacilit": 8599,
      "itarian": 8600,
      "ben": 8601,
      "ascar": 8602,
      "Ġdir": 8603,
      "Ġpatrol": 8604,
      "Ġdispl": 8605,
      "Ġplastic": 8606,
      "Ġmuhammad": 8607,
      "Ġcave": 8608,
      "Ġcharlotte": 8609,
      "Ġaar": 8610,
      "Ġportrayed": 8611,
      "Ġsomewhat": 8612,
      "Ġhurricane": 8613,
      "Ġnest": 8614,
      "Ġlocomotives": 8615,
      "Ġpent": 8616,
      "tical": 8617,
      "pal": 8618,
      "Ġfold": 8619,
      "bet": 8620,
      "Ġhenri": 8621,
      "Ġincumbent": 8622,
      "uka": 8623,
      "Ġgriff": 8624,
      "Ġfabric": 8625,
      "Ġtum": 8626,
      "Ġkirk": 8627,
      "Ġstuff": 8628,
      "Ġsimilarly": 8629,
      "Ġlis": 8630,
      "Ġacoust": 8631,
      "Ġriding": 8632,
      "Ġarchitects": 8633,
      "Ġassessment": 8634,
      "Ġpropag": 8635,
      "Ġcomponent": 8636,
      "Ġfen": 8637,
      "Ġcategories": 8638,
      "Ġphilippine": 8639,
      "Ġpitch": 8640,
      "Ġparker": 8641,
      "atever": 8642,
      "osph": 8643,
      "Ġmilk": 8644,
      "castle": 8645,
      "Ġsaudi": 8646,
      "Ġsculpture": 8647,
      "Ġcontinental": 8648,
      "othy": 8649,
      "Ġapparently": 8650,
      "Ġbris": 8651,
      "Ġalive": 8652,
      "Ġtut": 8653,
      "1987": 8654,
      "Ġlimits": 8655,
      "Ġroster": 8656,
      "Ġsurrender": 8657,
      "Ġperspective": 8658,
      "acht": 8659,
      "aceae": 8660,
      "Ġ1891": 8661,
      "Ġstu": 8662,
      "Ġamongst": 8663,
      "Ġsharp": 8664,
      "Ø§": 8665,
      "Ġnormally": 8666,
      "Ġupdated": 8667,
      "Ġhull": 8668,
      "Ġamph": 8669,
      "Ġbold": 8670,
      "urally": 8671,
      "Ġcotton": 8672,
      "Ġintention": 8673,
      "lon": 8674,
      "Ġhut": 8675,
      "Ġforming": 8676,
      "Ġnicholas": 8677,
      "Ġviewers": 8678,
      "Ġmicrosoft": 8679,
      "Ġeasier": 8680,
      "Ġtopics": 8681,
      "Ġmull": 8682,
      "Ġspoken": 8683,
      "Ġ1885": 8684,
      "Ġclock": 8685,
      "isted": 8686,
      "Ġcolombia": 8687,
      "Ġthunder": 8688,
      "Ġsemif": 8689,
      "Ġcrucial": 8690,
      "Ġhem": 8691,
      "Ġearthqu": 8692,
      "Ġdated": 8693,
      "Ġdenied": 8694,
      "Ġmam": 8695,
      "Ġdum": 8696,
      "Ġdialect": 8697,
      "Ġtea": 8698,
      "Ġconvicted": 8699,
      "Ġbristol": 8700,
      "Ġconnections": 8701,
      "Ġshang": 8702,
      "Ġmanif": 8703,
      "Ġmud": 8704,
      "Ġefficiency": 8705,
      "Ġpassage": 8706,
      "Ġbiology": 8707,
      "Ġphoenix": 8708,
      "Ġhack": 8709,
      "Ġratio": 8710,
      "Ġpm": 8711,
      "Ġcloser": 8712,
      "Ġwides": 8713,
      "Ġhidden": 8714,
      "Ġbiological": 8715,
      "Ġbotan": 8716,
      "Ġstable": 8717,
      "Ġgeomet": 8718,
      "ijing": 8719,
      "ocation": 8720,
      "Ġcertified": 8721,
      "Ġadmiral": 8722,
      "cill": 8723,
      "Ġsurrounded": 8724,
      "Ġindicated": 8725,
      "Ġpercentage": 8726,
      "icance": 8727,
      "Ġpine": 8728,
      "Ġglac": 8729,
      "Ġclinton": 8730,
      "Ġultimate": 8731,
      "Ġamazon": 8732,
      "Ġcousin": 8733,
      "four": 8734,
      "Ġphotographs": 8735,
      "Ġrhod": 8736,
      "ogs": 8737,
      "rac": 8738,
      "Ġhandle": 8739,
      "Ġabroad": 8740,
      "Ġmonastery": 8741,
      "Ġdescribe": 8742,
      "iest": 8743,
      "Ġdeclined": 8744,
      "Ġwearing": 8745,
      "Ġinvolves": 8746,
      "Ġstatue": 8747,
      "Ġfalling": 8748,
      "Ġmarvel": 8749,
      "Ġgw": 8750,
      "Ġcbs": 8751,
      "Ġannually": 8752,
      "Ġmanhattan": 8753,
      "Ġstem": 8754,
      "rett": 8755,
      "Ġmaritime": 8756,
      "Ġinstrumental": 8757,
      "Ġsustainable": 8758,
      "Ġvegas": 8759,
      "Ġfloren": 8760,
      "Ġdiscip": 8761,
      "Ġcb": 8762,
      "Ġgenre": 8763,
      "Ġpremiere": 8764,
      "Ġruling": 8765,
      "asp": 8766,
      "Ġrecur": 8767,
      "Ġartific": 8768,
      "Ġtexts": 8769,
      "Ġhence": 8770,
      "Ġcollins": 8771,
      "Ġsiege": 8772,
      "rog": 8773,
      "Ġregime": 8774,
      "Ġdestruction": 8775,
      "Ġquad": 8776,
      "rot": 8777,
      "Ġyam": 8778,
      "Ġnominations": 8779,
      "Ġhispan": 8780,
      "alph": 8781,
      "Ġtribes": 8782,
      "Ġnbc": 8783,
      "appo": 8784,
      "Ġoverseas": 8785,
      "Ġ57": 8786,
      "aks": 8787,
      "Ġcouples": 8788,
      "Ġoliver": 8789,
      "city": 8790,
      "Ġtrinity": 8791,
      "Ġgabri": 8792,
      "called": 8793,
      "Ġrut": 8794,
      "tering": 8795,
      "Ġpeaked": 8796,
      "Ġsignificance": 8797,
      "Ġcommemor": 8798,
      "Ġmaced": 8799,
      "Ġtimber": 8800,
      "Ġduo": 8801,
      "Ġ1888": 8802,
      "Ġmanufacturers": 8803,
      "enia": 8804,
      "Ġbengal": 8805,
      "Ġconfig": 8806,
      "acher": 8807,
      "Ġspell": 8808,
      "Ġgap": 8809,
      "Ġnarrative": 8810,
      "Ġ{": 8811,
      "Ġhospitals": 8812,
      "estone": 8813,
      "cers": 8814,
      "Ġchel": 8815,
      "Ġnu": 8816,
      "Ġfraud": 8817,
      "inction": 8818,
      "Ġsurviving": 8819,
      "Ġhein": 8820,
      "Ġmotors": 8821,
      "Ġharrison": 8822,
      "Ġfed": 8823,
      "Ġprotests": 8824,
      "Ġvoivodes": 8825,
      "var": 8826,
      "imir": 8827,
      "overs": 8828,
      "Ġvital": 8829,
      "Ġgust": 8830,
      "Ġturner": 8831,
      "Ġdemocrat": 8832,
      "iya": 8833,
      "Ġantar": 8834,
      "Ġnice": 8835,
      "Ġmontana": 8836,
      "idad": 8837,
      "Ġcitizen": 8838,
      "ibilities": 8839,
      "Ġ2023": 8840,
      "Ġalien": 8841,
      "Ġanat": 8842,
      "gart": 8843,
      "Ġposts": 8844,
      "Ġreduction": 8845,
      "Ġillustrated": 8846,
      "ribed": 8847,
      "keeper": 8848,
      "Ġmoroc": 8849,
      "Ġrapidly": 8850,
      "Ġprocedure": 8851,
      "feld": 8852,
      "Ġfurthermore": 8853,
      "riers": 8854,
      "Ġorient": 8855,
      "Ġnob": 8856,
      "Ġexpensive": 8857,
      "Ġfilip": 8858,
      "nals": 8859,
      "umed": 8860,
      "Ġwre": 8861,
      "Ġalp": 8862,
      "Ġsuspended": 8863,
      "1986": 8864,
      "Ġconclusion": 8865,
      "will": 8866,
      "Ġvoivodeship": 8867,
      "Ġincidents": 8868,
      "Ġstrengthe": 8869,
      "Ġshadow": 8870,
      "Ġthank": 8871,
      ".:": 8872,
      "Ġsah": 8873,
      "!\"": 8874,
      "Ġglen": 8875,
      "Ġdw": 8876,
      "Ġboats": 8877,
      "gent": 8878,
      "Ġwelcome": 8879,
      "Ġspoke": 8880,
      "Ġrestaurants": 8881,
      "Ġbaptist": 8882,
      "Ġlen": 8883,
      "Ġlayer": 8884,
      "hal": 8885,
      "enburg": 8886,
      "Ġwool": 8887,
      "Ġdup": 8888,
      "ulum": 8889,
      "Ġvolunteer": 8890,
      "Ġlifetime": 8891,
      "bir": 8892,
      "Ġsees": 8893,
      "Ġmissed": 8894,
      "Ġexists": 8895,
      "Ġgraduating": 8896,
      "Ġelite": 8897,
      "Ġemployee": 8898,
      "Ġjerry": 8899,
      "Ġmounted": 8900,
      "Ġalger": 8901,
      "wig": 8902,
      "incinn": 8903,
      "1985": 8904,
      "Ġmend": 8905,
      "Ġblan": 8906,
      "fs": 8907,
      "Ġmoves": 8908,
      "acle": 8909,
      "Ġheaven": 8910,
      "Ġcort": 8911,
      "Ġcargo": 8912,
      "Ġpossibility": 8913,
      "Ġdollars": 8914,
      "Ġanthrop": 8915,
      "dire": 8916,
      "Ġroot": 8917,
      "brew": 8918,
      "shaped": 8919,
      "Ġscout": 8920,
      "imp": 8921,
      "Ġconsiderable": 8922,
      "Ġextent": 8923,
      "Ġserie": 8924,
      "obi": 8925,
      "kov": 8926,
      "pread": 8927,
      "Ġlongest": 8928,
      "Ġadela": 8929,
      "atar": 8930,
      "Ġwis": 8931,
      "Ġdemolished": 8932,
      "Ġpeer": 8933,
      "Ġmystery": 8934,
      "Ġgenes": 8935,
      "Ġsul": 8936,
      "Ġessay": 8937,
      "bound": 8938,
      "winning": 8939,
      "Ġbulgar": 8940,
      "Ġamazing": 8941,
      "aca": 8942,
      "Ġpastor": 8943,
      "Ġeagle": 8944,
      "oko": 8945,
      "vic": 8946,
      "xic": 8947,
      "Ġperiods": 8948,
      "Ġcraig": 8949,
      "Ġtours": 8950,
      "berry": 8951,
      "Ġvirus": 8952,
      "ridge": 8953,
      "aho": 8954,
      "Ġmanufacturer": 8955,
      "Ġcuba": 8956,
      "Ġninth": 8957,
      "1984": 8958,
      "rine": 8959,
      "eli": 8960,
      "Ġsap": 8961,
      "Ġtheod": 8962,
      "lims": 8963,
      "borne": 8964,
      "asia": 8965,
      "Ġusage": 8966,
      "Ġexisted": 8967,
      "Ġelectro": 8968,
      "incinnati": 8969,
      "âĢĿ,": 8970,
      "Ġgren": 8971,
      "Ġ1865": 8972,
      "Ġharbor": 8973,
      "Ġimmigration": 8974,
      "Ġboxing": 8975,
      "Ġvincent": 8976,
      "Ġov": 8977,
      "Ġdeck": 8978,
      "fran": 8979,
      "mates": 8980,
      "Ġframework": 8981,
      "elines": 8982,
      "lu": 8983,
      "Ġcamb": 8984,
      "Ġced": 8985,
      "Ġexceed": 8986,
      "Ġindicates": 8987,
      "dles": 8988,
      "Ġbehalf": 8989,
      "ultane": 8990,
      "Ġwells": 8991,
      "Ġjudg": 8992,
      "Ġwhatever": 8993,
      "oric": 8994,
      "bane": 8995,
      "Ġshir": 8996,
      "inch": 8997,
      "Ġindeed": 8998,
      "Ġphysician": 8999,
      "Ġawareness": 9000,
      "Ġinput": 9001,
      "Ġshift": 9002,
      "Ġapartment": 9003,
      "Ġexclusive": 9004,
      "Ġaber": 9005,
      "Ġion": 9006,
      "acre": 9007,
      "Ġ58": 9008,
      "Ġ1887": 9009,
      "Ġmarry": 9010,
      "Ġyang": 9011,
      "oct": 9012,
      "Ġvilla": 9013,
      "Ġrodr": 9014,
      "Ġprovinces": 9015,
      "Ġcoat": 9016,
      "ophone": 9017,
      "Ġcommitment": 9018,
      "Ġmerit": 9019,
      "Ġcancelled": 9020,
      "Ġcolspan": 9021,
      "backs": 9022,
      "later": 9023,
      "Ġmigr": 9024,
      "Ġbert": 9025,
      "bin": 9026,
      "1970": 9027,
      "kan": 9028,
      "Ġmoll": 9029,
      "Ġcivilian": 9030,
      "Ġproport": 9031,
      "Ġdent": 9032,
      "Ġtruly": 9033,
      "Ġapplic": 9034,
      "Ġbrew": 9035,
      "Ġgaming": 9036,
      "Ġwidespread": 9037,
      "Ġ1000": 9038,
      "Ġprest": 9039,
      "Ġuniform": 9040,
      "Ġaccessible": 9041,
      "Ġrocks": 9042,
      "Ġthorough": 9043,
      "lik": 9044,
      "Ġpere": 9045,
      "Ġpioneer": 9046,
      "Ġsak": 9047,
      "Ġemotional": 9048,
      "Ġbarcel": 9049,
      "Ġgreatly": 9050,
      "aba": 9051,
      "Ġexposed": 9052,
      "cin": 9053,
      "Ġ1864": 9054,
      "Ġcampaigns": 9055,
      "Ġloved": 9056,
      "Ġreporter": 9057,
      "Ġhann": 9058,
      "Ġrally": 9059,
      "Ġpopulations": 9060,
      "Ġguilty": 9061,
      "Ġseb": 9062,
      "aser": 9063,
      "Ġjet": 9064,
      "Ġtier": 9065,
      "athy": 9066,
      "Ġinformed": 9067,
      "Ġud": 9068,
      "game": 9069,
      "Ġcapit": 9070,
      "Ġcarn": 9071,
      "Ġsimultane": 9072,
      "Ġcarrier": 9073,
      "uits": 9074,
      "Ġunusual": 9075,
      "omon": 9076,
      "Ġworst": 9077,
      "Ġsentence": 9078,
      "Ġsample": 9079,
      "Ġjess": 9080,
      "Ġpalm": 9081,
      "central": 9082,
      "Ġrush": 9083,
      "original": 9084,
      "aco": 9085,
      "Ġgenetic": 9086,
      "Ġencouraged": 9087,
      "Ġsupplement": 9088,
      "Ġhale": 9089,
      "league": 9090,
      "Ġpray": 9091,
      "sub": 9092,
      "Ġcalendar": 9093,
      "sterdam": 9094,
      "Ġcopper": 9095,
      "Ġherbert": 9096,
      "holm": 9097,
      "1983": 9098,
      "Ġlegs": 9099,
      "Ġjournals": 9100,
      "Ġtight": 9101,
      "Ð²": 9102,
      "Ġguardian": 9103,
      "Ġbeijing": 9104,
      "Ġarabic": 9105,
      "duct": 9106,
      "Ġmeg": 9107,
      "Ġliz": 9108,
      "Ġevangel": 9109,
      "Ñĥ": 9110,
      "Ġwoods": 9111,
      "Ġpatron": 9112,
      "Ġmasc": 9113,
      "Ġpackage": 9114,
      "Ġmul": 9115,
      "Ġtet": 9116,
      "Ġoperator": 9117,
      "terior": 9118,
      "Ġreservoir": 9119,
      "Ġincreases": 9120,
      "Ġallies": 9121,
      "enberg": 9122,
      "bol": 9123,
      "iph": 9124,
      "Ġreh": 9125,
      "Î¿": 9126,
      "onymous": 9127,
      "Ġacceler": 9128,
      "Ġyield": 9129,
      "Ġ66": 9130,
      "Ġ1861": 9131,
      "Ġfilming": 9132,
      "second": 9133,
      "Ġcontinuous": 9134,
      "Ġtouring": 9135,
      "Ġengagement": 9136,
      "Ġcincinnati": 9137,
      "gle": 9138,
      "Ġmonday": 9139,
      "Ġbent": 9140,
      "Ġhugh": 9141,
      "Ġcogn": 9142,
      "ivia": 9143,
      "Ġoccasions": 9144,
      "Ġclaiming": 9145,
      "ais": 9146,
      "Ġbless": 9147,
      "Ġbren": 9148,
      "Ġexplo": 9149,
      "itis": 9150,
      "hew": 9151,
      "Ġ1886": 9152,
      "Ġbulg": 9153,
      "Ġremoval": 9154,
      "Ġobama": 9155,
      "Ġtriang": 9156,
      "Ġdriven": 9157,
      "assy": 9158,
      "Ġcn": 9159,
      "teenth": 9160,
      "Ġdelta": 9161,
      "Ġquar": 9162,
      "Ġsentenced": 9163,
      "Ġdos": 9164,
      "rors": 9165,
      "owed": 9166,
      "Ġrelation": 9167,
      "Ġsao": 9168,
      "Ġtempor": 9169,
      "Ġimprovement": 9170,
      "Ġcertainly": 9171,
      "300": 9172,
      "clos": 9173,
      "Ġcouncill": 9174,
      "Ġqualification": 9175,
      "Ġenjoyed": 9176,
      "ingham": 9177,
      "Ġterry": 9178,
      "Ġminority": 9179,
      "sur": 9180,
      "Ġempt": 9181,
      "Ġlarry": 9182,
      "Ġimposs": 9183,
[...]
